▁xxunk	0
▁xxpad	0
▁xxbos	0
▁xxeos	0
▁xxfld	0
▁xxrep	0
▁xxwrep	0
▁xxup	0
▁xxmaj	0
<unk>	0
▁the	-3.36285
.	-3.41971
,	-3.48459
s	-3.64488
▁a	-3.90982
▁and	-4.05951
▁to	-4.07257
▁of	-4.09129
br	-4.35248
▁/>	-4.37226
<	-4.41604
▁is	-4.42032
▁I	-4.57304
▁in	-4.57471
▁it	-4.60342
'	-4.66842
\'	-4.71244
▁that	-4.74613
▁this	-4.80019
t	-4.86819
▁was	-5.00077
▁movie	-5.0274
ing	-5.12126
-	-5.14579
▁	-5.16431
"	-5.25902
▁for	-5.26167
▁with	-5.29954
▁film	-5.37401
ed	-5.42853
▁The	-5.4369
▁but	-5.452
▁on	-5.45493
▁b	-5.51482
▁have	-5.53448
▁be	-5.54484
▁as	-5.54704
▁"	-5.55057
▁you	-5.56727
▁not	-5.60034
▁(	-5.62067
▁are	-5.64764
ly	-5.68067
▁one	-5.80081
d	-5.80651
▁like	-5.88643
▁they	-5.88694
▁his	-5.89969
▁all	-5.9266
▁he	-5.93502
▁at	-5.94574
▁so	-5.99172
▁just	-6.01476
▁an	-6.01994
▁from	-6.05518
▁who	-6.0619
▁by	-6.06889
▁out	-6.07757
y	-6.078
)	-6.07804
▁or	-6.08268
▁about	-6.1114
?	-6.19317
e	-6.19906
I	-6.23551
▁some	-6.23672
▁has	-6.28222
▁can	-6.31819
▁there	-6.32719
▁would	-6.34585
▁her	-6.34907
▁no	-6.35205
▁It	-6.35423
▁bad	-6.36612
▁good	-6.37039
m	-6.38027
▁up	-6.38788
▁if	-6.3895
▁even	-6.4033
The	-6.40698
▁more	-6.43517
▁time	-6.43741
▁what	-6.45243
▁only	-6.45292
▁make	-6.46466
▁get	-6.47659
!	-6.50292
▁really	-6.50642
▁were	-6.51793
▁me	-6.51959
▁had	-6.52783
▁very	-6.56464
...	-6.59428
▁when	-6.6174
er	-6.62875
▁my	-6.63678
▁been	-6.64734
▁see	-6.65398
▁much	-6.67155
▁their	-6.67514
▁story	-6.67975
▁do	-6.68417
:	-6.68641
▁she	-6.68828
▁than	-6.69895
a	-6.70517
ve	-6.72048
▁could	-6.74128
▁into	-6.75666
▁which	-6.7588
."	-6.75968
re	-6.76687
▁A	-6.7754
▁people	-6.79921
▁made	-6.82309
▁don	-6.82374
▁we	-6.84492
▁-	-6.85301
▁This	-6.85573
▁other	-6.86384
▁because	-6.86473
▁any	-6.87238
▁plot	-6.88827
▁how	-6.89506
▁too	-6.91046
▁way	-6.95073
.'	-6.95894
▁movies	-6.96735
▁acting	-6.98131
▁them	-6.98639
▁most	-6.99734
▁think	-7.01196
▁will	-7.02151
▁better	-7.03538
▁characters	-7.04089
▁him	-7.04126
▁off	-7.04412
▁seen	-7.04634
▁know	-7.04684
▁over	-7.04895
▁ever	-7.06162
▁character	-7.06892
\	-7.07028
▁did	-7.07277
▁watch	-7.07703
▁And	-7.08298
▁never	-7.09258
▁show	-7.09365
▁then	-7.09662
▁first	-7.11062
al	-7.11141
▁should	-7.12043
▁also	-7.12555
▁say	-7.12586
▁your	-7.13982
l	-7.14667
n	-7.14748
▁look	-7.15043
▁But	-7.15509
▁well	-7.15995
▁where	-7.16523
This	-7.16583
o	-7.19296
es	-7.19452
▁little	-7.21985
▁being	-7.22829
xc	-7.23207
▁want	-7.23445
▁many	-7.23588
r	-7.23619
▁thing	-7.23986
x	-7.24417
).	-7.25226
A	-7.25312
▁didn	-7.25921
▁two	-7.26327
▁something	-7.26331
;	-7.26809
▁after	-7.27064
▁i	-7.27526
▁scenes	-7.27623
▁films	-7.28882
▁scene	-7.28982
▁S	-7.29486
▁end	-7.3081
▁go	-7.32075
▁<	-7.32592
▁He	-7.33453
▁nothing	-7.34249
ll	-7.34472
▁watching	-7.34496
▁There	-7.34655
or	-7.36108
S	-7.36634
▁does	-7.38406
/	-7.39134
c	-7.40167
▁In	-7.40214
▁If	-7.40835
▁actually	-7.4091
▁B	-7.40927
ting	-7.41841
▁these	-7.4189
▁back	-7.42071
▁doesn	-7.42365
▁actors	-7.4237
▁through	-7.42866
▁great	-7.43401
▁going	-7.44136
▁worst	-7.44636
in	-7.45389
▁minutes	-7.45623
▁man	-7.46527
),	-7.46929
▁part	-7.48508
▁such	-7.48558
▁find	-7.48848
▁life	-7.49151
p	-7.49269
▁real	-7.49523
▁why	-7.50104
▁funny	-7.51369
▁still	-7.52317
▁work	-7.53371
▁director	-7.53939
▁few	-7.54228
▁script	-7.54413
3	-7.54808
▁before	-7.55222
▁lot	-7.55968
le	-7.56799
▁here	-7.56884
▁around	-7.58273
▁old	-7.58481
▁least	-7.58546
▁fact	-7.58814
▁pretty	-7.58887
▁love	-7.58986
▁down	-7.59264
▁best	-7.59426
i	-7.60536
▁those	-7.61301
▁guy	-7.62229
▁its	-7.6293
▁same	-7.63418
b	-7.63843
▁enough	-7.64492
▁give	-7.64701
▁seems	-7.65561
▁thought	-7.66608
▁another	-7.68062
▁C	-7.68244
and	-7.69689
on	-7.69739
▁while	-7.70475
▁whole	-7.71471
▁got	-7.7194
2\	-7.72547
▁isn	-7.72703
▁original	-7.72776
▁horror	-7.74763
▁'	-7.75076
▁again	-7.75495
se	-7.76203
▁things	-7.76262
▁might	-7.76339
▁big	-7.76406
▁take	-7.76522
▁feel	-7.7697
▁point	-7.77357
the	-7.77903
▁years	-7.77987
▁interesting	-7.78578
▁un	-7.78759
▁stupid	-7.79174
▁money	-7.79219
▁every	-7.79246
▁though	-7.79336
▁They	-7.79589
▁must	-7.80094
an	-7.80859
th	-7.80904
▁P	-7.81064
▁poor	-7.81869
▁anything	-7.82242
te	-7.83668
▁long	-7.83831
▁hard	-7.84937
▁far	-7.85113
▁reason	-7.85257
&	-7.87031
▁right	-7.87109
▁awful	-7.87509
▁put	-7.87513
▁now	-7.8761
▁am	-7.88149
ers	-7.88311
▁action	-7.88322
▁gets	-7.88908
f	-7.88923
▁book	-7.89212
en	-7.89776
▁2	-7.89843
▁waste	-7.89999
▁kind	-7.90113
▁quite	-7.90253
▁come	-7.90507
▁believe	-7.90937
▁bit	-7.91544
ic	-7.91725
C	-7.91831
▁without	-7.91839
T	-7.92052
▁effects	-7.92177
▁away	-7.92484
▁comedy	-7.92661
g	-7.9278
▁sure	-7.93628
▁completely	-7.94206
▁boring	-7.94533
▁done	-7.94742
ion	-7.94879
▁trying	-7.94968
▁cast	-7.95855
k	-7.9587
▁else	-7.95996
almost	-7.97004
it	-7.9723
▁saw	-7.97498
▁someone	-7.97603
▁re	-7.9809
▁name	-7.99657
▁anyone	-7.99733
▁making	-8.00109
▁looking	-8.00475
D	-8.00613
able	-8.00763
9	-8.00849
▁You	-8.01128
u	-8.01667
▁probably	-8.02119
▁goes	-8.02267
as	-8.02351
▁idea	-8.0267
▁seem	-8.02803
▁sense	-8.03164
▁girl	-8.03244
▁world	-8.03719
▁That	-8.04307
ar	-8.04692
▁terrible	-8.04782
▁wasn	-8.05121
▁tell	-8.0524
less	-8.05732
▁place	-8.0587
▁main	-8.06424
▁What	-8.06697
▁read	-8.06734
▁10	-8.06879
▁role	-8.07668
▁left	-8.08056
▁TV	-8.08699
--	-8.08862
It	-8.08991
▁screen	-8.1038
▁fun	-8.1064
(	-8.11349
▁worse	-8.11456
▁found	-8.11482
▁D	-8.11657
M	-8.11715
is	-8.12244
▁new	-8.12315
▁us	-8.12881
▁set	-8.12968
▁times	-8.13214
▁So	-8.13735
▁instead	-8.13844
▁looks	-8.14269
▁always	-8.14455
▁let	-8.14521
▁No	-8.14542
▁own	-8.14935
▁camera	-8.15011
xa	-8.15171
▁American	-8.15463
▁low	-8.16087
▁since	-8.16182
▁use	-8.16577
▁may	-8.16844
▁between	-8.17406
▁watched	-8.17486
man	-8.17566
▁actor	-8.17934
▁special	-8.18007
▁rather	-8.1801
▁last	-8.18049
▁budget	-8.18114
▁F	-8.18611
▁woman	-8.18634
R	-8.1899
▁everything	-8.1987
▁laugh	-8.1991
us	-8.20047
▁start	-8.20186
ce	-8.2047
▁M	-8.20471
P	-8.21731
▁shot	-8.21758
▁guess	-8.21768
▁either	-8.21792
▁music	-8.22337
▁audience	-8.22338
▁sound	-8.22378
ness	-8.23082
▁couldn	-8.23395
▁\'	-8.23636
▁hav	-8.23926
ri	-8.2401
▁wrong	-8.24363
▁need	-8.24604
▁ending	-8.24612
h	-8.24723
▁She	-8.24942
▁fan	-8.25042
▁T	-8.25171
el	-8.25623
▁horrible	-8.25677
▁try	-8.2582
▁comes	-8.26061
▁young	-8.26319
▁course	-8.26344
▁dialogue	-8.26348
▁rest	-8.26417
▁short	-8.27015
▁DVD	-8.27704
ur	-8.27801
st	-8.27979
▁worth	-8.28111
▁half	-8.2839
▁line	-8.29645
▁said	-8.29749
▁Why	-8.29857
▁day	-8.3007
".	-8.30459
▁under	-8.30516
▁head	-8.30554
▁high	-8.31332
▁\	-8.31463
▁seeing	-8.31477
▁remember	-8.31843
▁mean	-8.3232
▁once	-8.32354
B	-8.32718
▁When	-8.32781
▁guys	-8.32824
▁To	-8.33101
▁care	-8.33133
▁different	-8.33285
▁both	-8.33905
▁each	-8.34015
▁friends	-8.34462
ra	-8.34611
to	-8.34614
▁series	-8.34747
▁E	-8.35249
ity	-8.35269
▁kids	-8.35299
▁three	-8.35452
▁absolutely	-8.35508
▁As	-8.3565
▁job	-8.35712
▁everyone	-8.36211
▁went	-8.36231
est	-8.36482
▁person	-8.36862
▁case	-8.36917
▁women	-8.36928
▁production	-8.36951
▁used	-8.37856
▁3	-8.38115
!"	-8.38244
▁play	-8.38412
▁sort	-8.38424
▁yet	-8.38448
ies	-8.38785
If	-8.38916
▁simply	-8.39173
▁video	-8.39219
▁our	-8.39282
In	-8.39526
▁nice	-8.39576
▁flick	-8.39629
▁supposed	-8.39703
▁played	-8.39707
E	-8.398
▁Not	-8.39894
▁version	-8.39939
▁run	-8.4012
",	-8.40169
▁doing	-8.40205
at	-8.40277
w	-8.40546
▁For	-8.40585
▁together	-8.40706
▁K	-8.41024
ie	-8.41037
▁piece	-8.41219
▁fall	-8.41486
▁crap	-8.41791
▁plays	-8.41859
▁kill	-8.41866
▁dur	-8.41962
▁sex	-8.42017
▁ridiculous	-8.42262
▁next	-8.42262
▁however	-8.42312
▁lack	-8.42986
▁men	-8.43653
▁G	-8.44471
▁seemed	-8.44513
▁sit	-8.45222
▁full	-8.45426
▁wife	-8.45484
▁help	-8.45773
▁THE	-8.45886
▁killed	-8.45907
▁performance	-8.46097
▁cheap	-8.46262
▁night	-8.4636
▁turn	-8.46517
▁shows	-8.46661
▁entire	-8.46735
▁We	-8.47071
▁family	-8.47089
▁black	-8.47118
▁school	-8.47151
▁However	-8.47178
▁ga	-8.47737
▁keep	-8.47766
N	-8.47888
▁attempt	-8.48019
ous	-8.48284
▁usual	-8.48748
▁quality	-8.48754
▁Hollywood	-8.48773
▁came	-8.48883
ation	-8.48954
▁O	-8.48963
▁small	-8.49582
▁felt	-8.49595
▁given	-8.49777
▁takes	-8.49922
▁recommend	-8.49957
▁mind	-8.50492
▁star	-8.50508
▁especially	-8.5051
▁house	-8.50565
▁understand	-8.50634
▁R	-8.5076
▁H	-8.51101
▁problem	-8.51247
▁home	-8.51284
96	-8.51285
▁John	-8.51347
▁year	-8.51373
▁de	-8.51648
ne	-8.51786
▁All	-8.5184
▁example	-8.52066
▁himself	-8.52146
▁tries	-8.52153
▁save	-8.5274
▁lead	-8.52753
▁wanted	-8.52878
▁couple	-8.53016
▁second	-8.53029
ther	-8.53178
▁along	-8.53322
one	-8.53332
▁town	-8.53392
▁death	-8.53856
am	-8.54006
ish	-8.54524
▁playing	-8.54596
▁already	-8.54778
▁itself	-8.54778
▁true	-8.54802
▁W	-8.549
ro	-8.54903
▁etc	-8.55671
up	-8.55798
▁enjoy	-8.56083
▁close	-8.56188
▁lines	-8.56369
▁near	-8.56568
▁Well	-8.56573
There	-8.56994
la	-8.571
▁Don	-8.57261
▁p	-8.58179
▁less	-8.58407
▁Then	-8.58434
▁dead	-8.58518
ir	-8.5894
L	-8.58975
ch	-8.58989
▁war	-8.59208
▁face	-8.59271
▁monster	-8.5949
K	-8.59685
▁One	-8.59851
▁car	-8.60122
▁My	-8.60954
▁decent	-8.6123
▁direction	-8.61233
▁written	-8.61249
▁c	-8.61386
▁On	-8.6159
ter	-8.62044
▁writing	-8.62169
Y	-8.62184
▁classic	-8.62192
▁maybe	-8.62235
ist	-8.62373
▁called	-8.62612
▁slow	-8.62807
▁4	-8.63463
▁writer	-8.63478
G	-8.63588
▁father	-8.64132
▁wonder	-8.64327
▁friend	-8.64413
▁unti	-8.64618
▁mess	-8.6465
▁L	-8.65387
▁stuff	-8.66064
▁pick	-8.66102
▁annoying	-8.66121
▁myself	-8.67058
▁stop	-8.67061
▁drama	-8.67398
▁matter	-8.67443
tally	-8.67594
▁5	-8.68085
▁complete	-8.68464
▁side	-8.68753
▁manage	-8.69044
▁God	-8.69071
▁beginning	-8.69091
▁won	-8.69112
▁act	-8.70068
▁dialog	-8.70113
▁silly	-8.70119
▁Even	-8.70224
z	-8.70337
▁At	-8.70366
▁humor	-8.71144
▁picture	-8.71176
▁title	-8.71666
▁hour	-8.71739
▁st	-8.71752
▁obvious	-8.7187
na	-8.719
▁fans	-8.72154
▁mother	-8.72221
▁stay	-8.72221
▁thinking	-8.72364
▁1	-8.72369
▁top	-8.72709
ive	-8.73011
F	-8.73194
▁son	-8.73223
▁local	-8.73279
▁female	-8.73293
▁Also	-8.73385
▁meet	-8.73903
O	-8.74049
▁group	-8.74352
ian	-8.74414
▁sever	-8.7477
et	-8.74795
▁extreme	-8.7544
▁predictable	-8.75445
▁fight	-8.7611
ant	-8.76378
▁dull	-8.76552
▁fair	-8.76559
▁cool	-8.7658
▁later	-8.76603
▁hand	-8.76847
▁stars	-8.77358
lo	-8.77358
▁killer	-8.77385
▁poorly	-8.77426
▁clich	-8.77502
▁entertaining	-8.77734
▁against	-8.77775
▁happens	-8.7785
▁After	-8.77865
▁talent	-8.77912
▁call	-8.7793
id	-8.78124
un	-8.78313
▁game	-8.78376
▁episode	-8.78397
▁co	-8.78696
▁themselves	-8.78773
ent	-8.78796
▁How	-8.78944
▁becomes	-8.79072
▁obviously	-8.79141
▁--	-8.79167
What	-8.79337
▁live	-8.79437
ty	-8.7946
▁often	-8.79539
▁cinema	-8.79648
▁cover	-8.79921
▁weak	-8.79952
▁disappointed	-8.79953
ton	-8.8004
▁become	-8.8082
il	-8.80859
▁boy	-8.80922
▁hell	-8.81044
▁bunch	-8.81059
▁pay	-8.8106
▁expect	-8.81192
▁hours	-8.81613
▁N	-8.81963
▁wish	-8.82145
▁beautiful	-8.82233
▁genre	-8.82261
▁white	-8.82276
ha	-8.82366
▁took	-8.82463
▁talk	-8.82484
▁mention	-8.82962
fi	-8.83341
▁children	-8.834
▁sad	-8.8347
▁fails	-8.83992
▁started	-8.84252
▁wouldn	-8.84327
▁hate	-8.84452
ry	-8.84457
▁happen	-8.84525
▁hero	-8.84533
▁except	-8.84546
▁spend	-8.84608
!!	-8.84706
▁turns	-8.84813
ke	-8.85011
▁Man	-8.85484
!)	-8.85553
▁sequel	-8.85565
▁order	-8.85944
▁cut	-8.85962
son	-8.8599
lthough	-8.8611
ge	-8.862
▁words	-8.86419
no	-8.86662
▁blood	-8.86798
sh	-8.8688
▁daughter	-8.87031
▁early	-8.87063
▁final	-8.87691
but	-8.88168
be	-8.88178
▁dark	-8.88244
▁truly	-8.88247
▁tried	-8.88252
▁spent	-8.88255
▁review	-8.88515
▁parts	-8.88812
▁ex	-8.8901
▁decide	-8.89245
▁viewer	-8.89481
▁lost	-8.8952
▁Of	-8.89856
▁talking	-8.90143
out	-8.90264
▁move	-8.90433
▁jokes	-8.90555
▁girls	-8.90649
▁huge	-8.90766
▁rating	-8.90779
ma	-8.91119
▁bring	-8.9126
▁gore	-8.91328
As	-8.91714
▁saying	-8.91788
And	-8.91811
▁hit	-8.91978
▁involved	-8.92145
▁Just	-8.92204
▁interest	-8.92305
▁figure	-8.92311
W	-8.92752
!!!	-8.92809
▁hope	-8.92964
▁moments	-8.93097
▁dumb	-8.93178
▁self	-8.93327
▁human	-8.93363
▁fine	-8.93365
taking	-8.93447
▁across	-8.93493
ine	-8.93587
ck	-8.93622
!'	-8.93699
▁finally	-8.93708
▁happened	-8.93826
ling	-8.94178
▁pathetic	-8.94682
▁team	-8.94686
▁Mr	-8.94874
▁Now	-8.94911
king	-8.94965
ul	-8.95338
▁f	-8.95691
▁h	-8.95857
▁footage	-8.95996
▁average	-8.96028
▁evil	-8.96061
▁20	-8.96115
▁cannot	-8.96147
ary	-8.96166
▁follow	-8.96298
if	-8.96316
▁pre	-8.96395
▁actress	-8.97268
▁result	-8.97344
▁violence	-8.97344
▁behind	-8.97345
▁voice	-8.97371
▁effort	-8.97372
▁space	-8.9738
▁throughout	-8.97409
▁OK	-8.97573
▁liked	-8.98509
▁total	-8.9853
▁running	-8.98723
▁shots	-8.98831
▁able	-8.98927
▁heart	-8.99493
▁others	-8.99534
age	-8.99539
1	-8.99696
▁serious	-8.99803
▁Ed	-8.99887
▁novel	-9.00114
▁possible	-9.00135
▁His	-9.00146
▁scary	-9.00232
▁style	-9.00269
▁coming	-9.0028
▁room	-9.00311
▁wasted	-9.00472
▁turned	-9.0086
▁strange	-9.01372
▁major	-9.01512
▁kept	-9.01513
*	-9.01519
▁late	-9.0154
um	-9.01607
▁hold	-9.01612
▁joke	-9.01783
▁type	-9.01792
like	-9.02113
ate	-9.02138
ted	-9.02169
▁walk	-9.02333
▁break	-9.02482
▁write	-9.029
▁IMDb	-9.0294
▁documentary	-9.02941
▁message	-9.02972
▁check	-9.02994
▁exactly	-9.03017
▁Michael	-9.03036
ally	-9.03149
▁directed	-9.03201
▁moment	-9.03208
▁kid	-9.03223
▁Oh	-9.03238
▁art	-9.03293
▁soon	-9.03905
▁yourself	-9.04389
▁pull	-9.0439
▁With	-9.04488
5	-9.0474
▁seriously	-9.0475
▁De	-9.04958
▁appears	-9.04998
▁gun	-9.05091
▁age	-9.05173
▁non	-9.05318
ment	-9.05326
▁cheesy	-9.0586
▁subject	-9.0586
▁knew	-9.0586
My	-9.05871
▁body	-9.059
▁certainly	-9.06113
▁Or	-9.06127
▁career	-9.06263
2	-9.06526
▁Ma	-9.06576
▁t	-9.06858
ism	-9.07021
eyond	-9.07292
▁English	-9.07383
▁box	-9.07412
▁editing	-9.0743
▁Whi	-9.0754
▁heard	-9.07758
▁opening	-9.07935
▁nor	-9.08493
▁opinion	-9.08868
▁doubt	-9.08868
▁weird	-9.08869
▁hair	-9.08881
▁NOT	-9.08889
▁problems	-9.08934
▁Some	-9.0908
▁change	-9.09083
▁Do	-9.09115
▁sub	-9.09254
▁leave	-9.0931
▁none	-9.09401
which	-9.09834
So	-9.10016
▁light	-9.10134
ful	-9.10179
But	-9.1019
▁past	-9.10428
▁New	-9.10449
▁Instead	-9.10461
▁Van	-9.10522
▁wear	-9.10803
▁open	-9.10911
▁lame	-9.11027
▁avoid	-9.11059
▁J	-9.11377
▁cop	-9.11458
▁add	-9.11542
▁feeling	-9.11574
▁experience	-9.11666
▁whe	-9.11753
▁sometimes	-9.11972
▁redeem	-9.12022
▁sci	-9.12079
85	-9.12081
▁Maybe	-9.12178
▁starts	-9.12228
▁decided	-9.12375
ever	-9.12588
▁Robert	-9.12625
▁die	-9.1274
▁ago	-9.12923
▁needed	-9.13032
ia	-9.1316
not	-9.1321
▁cinematography	-9.13556
▁score	-9.13563
▁child	-9.13574
▁bother	-9.136
▁V	-9.13782
▁shown	-9.1415
▁ten	-9.14188
▁Dr	-9.14588
ho	-9.14749
▁days	-9.14791
ley	-9.14926
▁material	-9.15169
▁trash	-9.15172
▁alone	-9.15174
▁girlfriend	-9.15183
▁single	-9.15199
▁storyline	-9.15282
▁reviews	-9.15325
▁says	-9.15327
▁apparently	-9.15332
▁released	-9.15463
▁d	-9.15479
li	-9.15611
▁rent	-9.1583
▁badly	-9.15857
ow	-9.16416
oo	-9.16468
▁clear	-9.16506
▁post	-9.16517
▁premise	-9.16808
▁history	-9.16809
▁French	-9.16823
▁stories	-9.16851
tic	-9.16883
nt	-9.16923
▁thriller	-9.16934
so	-9.16962
▁taken	-9.17122
....	-9.17284
H	-9.17294
▁begin	-9.17499
this	-9.17802
▁speak	-9.17858
▁80	-9.17967
ag	-9.18003
ig	-9.18186
▁release	-9.18196
▁admit	-9.18472
▁attention	-9.18475
▁bigge	-9.18538
▁quickly	-9.18588
▁performances	-9.18821
he	-9.19052
▁enjoyed	-9.19303
▁feature	-9.19468
▁four	-9.2014
▁m	-9.20169
▁excellent	-9.2017
▁told	-9.20219
▁particularly	-9.20448
for	-9.20631
▁con	-9.20777
pe	-9.20985
▁word	-9.21067
▁buy	-9.21321
V	-9.21671
ster	-9.21773
▁hot	-9.21873
▁chance	-9.21899
▁crew	-9.21908
▁murder	-9.21931
▁Unfortunately	-9.2204
▁unless	-9.22124
▁clearly	-9.22258
▁eyes	-9.22301
go	-9.22409
▁lives	-9.22421
do	-9.22772
▁aren	-9.2312
v	-9.23456
▁front	-9.23561
▁potential	-9.23648
▁imagine	-9.23663
▁class	-9.23699
▁perhaps	-9.23705
▁based	-9.23796
▁reading	-9.2382
▁First	-9.24022
▁parents	-9.24054
▁War	-9.2411
▁due	-9.24127
4	-9.24156
▁Mo	-9.2429
ol	-9.24364
J	-9.24666
▁shoot	-9.24827
▁important	-9.25123
▁excuse	-9.25434
▁husband	-9.2546
▁basically	-9.25479
▁water	-9.25518
▁David	-9.25523
▁somewhat	-9.25536
▁bored	-9.25551
▁pointless	-9.25574
▁sequences	-9.26129
▁view	-9.26156
▁upon	-9.26241
▁brother	-9.26423
▁credit	-9.26497
▁wait	-9.26655
When	-9.26679
line	-9.26926
who	-9.27043
▁straight	-9.27252
▁simple	-9.27252
▁large	-9.27253
giving	-9.27254
▁favorite	-9.27255
▁entertainment	-9.27271
▁anyway	-9.27316
movie	-9.27701
▁dog	-9.27724
ad	-9.27727
ated	-9.27846
▁appear	-9.27875
ta	-9.28143
mp	-9.28147
▁power	-9.28209
▁level	-9.28284
▁theater	-9.28288
▁fire	-9.28982
▁famous	-9.29104
▁purpose	-9.29104
▁store	-9.29105
▁stick	-9.2912
▁please	-9.29142
▁overall	-9.29185
▁sorry	-9.29228
▁dis	-9.29685
▁camp	-9.29884
▁sets	-9.29985
▁villain	-9.30234
▁sequence	-9.30261
land	-9.30339
▁minute	-9.30372
▁comment	-9.30515
▁learn	-9.30537
7	-9.30724
▁ma	-9.30863
▁country	-9.30998
▁suspense	-9.31051
co	-9.31069
▁happy	-9.31076
▁somehow	-9.31106
▁forced	-9.31176
▁ship	-9.31311
▁6	-9.31511
▁pass	-9.31521
▁stand	-9.31606
mo	-9.31645
▁e	-9.31725
▁cause	-9.31881
ble	-9.32094
▁hear	-9.32103
ance	-9.32106
▁project	-9.32119
▁jump	-9.32323
▁roles	-9.32343
▁flat	-9.32394
▁working	-9.32654
▁count	-9.32846
▁Indian	-9.32851
▁police	-9.32887
▁bizarre	-9.32914
▁positive	-9.32914
▁attack	-9.32915
▁living	-9.32916
▁Wood	-9.32916
▁believable	-9.32936
▁support	-9.32942
▁James	-9.32965
▁Who	-9.33028
ner	-9.3307
▁Jack	-9.33111
U	-9.33121
▁painful	-9.3315
▁U	-9.33303
▁gives	-9.33328
▁offer	-9.33402
der	-9.33482
?)	-9.33501
▁sh	-9.33518
ick	-9.33576
ug	-9.33613
▁killing	-9.33632
ni	-9.3376
▁crime	-9.34138
▁ask	-9.34142
▁number	-9.34187
▁alien	-9.34193
▁value	-9.34201
Well	-9.34352
▁super	-9.34493
▁song	-9.34502
▁haven	-9.34513
▁Bo	-9.34528
▁mostly	-9.3459
▁middle	-9.34876
▁television	-9.34876
▁brain	-9.34882
▁deep	-9.34894
▁definitely	-9.34935
▁battle	-9.34943
▁works	-9.34971
▁Most	-9.35091
ably	-9.35563
▁Un	-9.35619
os	-9.35652
▁Be	-9.35685
▁known	-9.35722
▁Go	-9.35793
▁explain	-9.35794
▁rate	-9.36092
▁certain	-9.3653
▁despi	-9.36565
▁suppose	-9.36572
You	-9.36731
▁agree	-9.36792
▁common	-9.36875
▁cartoon	-9.36876
▁disappointment	-9.36877
▁amount	-9.36928
▁five	-9.36959
▁strong	-9.36963
▁plain	-9.36974
▁Yes	-9.37176
▁land	-9.37544
▁comments	-9.37647
▁credits	-9.37767
da	-9.3797
To	-9.38216
▁today	-9.38285
▁previous	-9.38565
▁list	-9.38607
all	-9.38752
▁similar	-9.38911
▁trouble	-9.38916
▁describe	-9.38917
▁Nothing	-9.38983
▁barely	-9.39006
?"	-9.39095
of	-9.39384
6	-9.39629
▁expected	-9.39708
▁*	-9.39733
by	-9.39761
▁hop	-9.39797
▁An	-9.40104
▁accent	-9.4042
▁build	-9.40437
▁situation	-9.4045
well	-9.40466
▁question	-9.40475
that	-9.40552
▁perfect	-9.40636
▁actual	-9.40664
▁Al	-9.4088
▁needs	-9.40952
ut	-9.40958
▁British	-9.40999
▁garbage	-9.40999
▁among	-9.41024
▁okay	-9.41066
▁ends	-9.41208
▁...	-9.41237
▁forward	-9.41292
▁building	-9.41607
▁acted	-9.42044
▁elements	-9.42111
▁twist	-9.42198
▁Re	-9.42425
▁door	-9.42498
ab	-9.42637
▁present	-9.42709
▁suggest	-9.43126
▁typical	-9.43126
▁easy	-9.43127
▁mix	-9.4313
▁hilarious	-9.43158
▁nowhere	-9.43197
▁using	-9.43215
ud	-9.43279
▁reality	-9.43337
▁remind	-9.43759
▁hands	-9.43924
▁toward	-9.43969
▁expecting	-9.44255
▁ha	-9.44564
ER	-9.44634
▁writers	-9.44657
▁ended	-9.44684
dy	-9.45006
▁showing	-9.45083
▁realize	-9.45102
▁leads	-9.45289
▁difficult	-9.453
▁nudity	-9.453
▁above	-9.45302
▁vote	-9.45304
▁forget	-9.45308
▁create	-9.45327
▁eye	-9.45328
▁OF	-9.45343
▁modern	-9.45345
▁fish	-9.45368
▁laughable	-9.45418
▁7	-9.45446
▁90	-9.45461
▁events	-9.45728
▁anti	-9.45832
▁sc	-9.45928
▁form	-9.45964
▁songs	-9.46037
▁mentioned	-9.46304
▁po	-9.46493
▁comic	-9.47046
▁respect	-9.47061
io	-9.47242
▁theme	-9.47388
▁background	-9.47523
▁disaster	-9.47523
▁paid	-9.47523
▁CGI	-9.47523
▁odd	-9.47526
▁Scott	-9.47594
▁male	-9.47649
▁viewers	-9.47762
ga	-9.47879
em	-9.47925
▁missing	-9.47955
0	-9.48122
time	-9.48296
rought	-9.48329
▁deal	-9.4838
die	-9.48735
▁rip	-9.48928
▁Fro	-9.49022
▁discover	-9.49104
▁Tom	-9.49305
ap	-9.49432
▁amazing	-9.49441
ay	-9.49564
▁incredibl	-9.49588
▁possib	-9.49741
▁prison	-9.49753
▁college	-9.49795
▁future	-9.49796
▁fast	-9.49802
▁screenplay	-9.49806
▁gang	-9.49813
▁mood	-9.49821
▁bomb	-9.49825
▁Italian	-9.49829
▁La	-9.50133
▁attempts	-9.50145
ang	-9.50177
▁drive	-9.50282
ure	-9.50332
▁interested	-9.50587
came	-9.506
▁pro	-9.50722
▁inside	-9.50723
▁filmmakers	-9.50951
om	-9.51117
▁means	-9.51404
ti	-9.51534
▁effect	-9.51849
For	-9.51857
ng	-9.52099
▁sick	-9.5211
▁regard	-9.52121
▁soundtrack	-9.52121
▁serve	-9.52121
▁wooden	-9.52122
▁70	-9.52129
volving	-9.52136
▁slasher	-9.52147
ill	-9.52155
▁fake	-9.52157
▁rock	-9.52193
▁Richard	-9.52211
▁win	-9.52225
▁Like	-9.52248
▁former	-9.5228
▁cat	-9.52371
8	-9.52826
▁points	-9.52986
▁holes	-9.53007
▁fighting	-9.53421
per	-9.53441
▁deliver	-9.53532
▁Let	-9.53655
nd	-9.53812
▁throw	-9.53884
with	-9.53936
▁hardly	-9.53974
▁free	-9.53985
▁suit	-9.54324
og	-9.54378
▁mediocre	-9.54502
▁wrote	-9.54502
▁neither	-9.54503
▁Le	-9.54561
▁military	-9.54565
▁Perhaps	-9.54579
▁George	-9.54607
▁30	-9.54649
▁successful	-9.54698
op	-9.54715
ING	-9.5474
▁whatever	-9.54745
▁setting	-9.5477
ard	-9.54879
▁fit	-9.55021
▁fill	-9.55049
▁meant	-9.55054
▁beat	-9.55123
off	-9.55214
▁provide	-9.55305
▁Her	-9.55488
xe	-9.55688
▁Ra	-9.55962
ier	-9.56103
▁leaves	-9.5623
▁escape	-9.56396
▁By	-9.56617
▁la	-9.56647
▁drug	-9.56759
▁laughing	-9.56849
▁basic	-9.5693
▁smart	-9.56941
▁computer	-9.56942
▁dress	-9.56999
▁produced	-9.57028
▁trip	-9.57057
▁concept	-9.57066
▁bought	-9.57091
▁knows	-9.57107
▁god	-9.57351
▁directing	-9.57546
▁Ha	-9.57657
day	-9.57681
▁lo	-9.57851
▁Car	-9.58205
vi	-9.58303
etic	-9.5833
▁fr	-9.58619
ns	-9.58811
▁sp	-9.58827
▁pace	-9.59014
▁honest	-9.59093
▁particular	-9.59096
▁reasons	-9.59156
▁Co	-9.59275
▁America	-9.5928
▁creature	-9.59294
▁secret	-9.59427
▁desert	-9.59442
▁ground	-9.59445
▁various	-9.59447
▁remake	-9.59453
▁development	-9.59455
▁romantic	-9.59463
▁third	-9.59478
▁notice	-9.59505
▁thrown	-9.59523
▁send	-9.59539
▁disappointing	-9.59573
hi	-9.5963
▁failed	-9.59657
▁taste	-9.59659
que	-9.59662
▁surprised	-9.59715
▁fl	-9.59743
▁Bad	-9.59847
▁considered	-9.59868
light	-9.59986
tal	-9.60151
▁gay	-9.60159
▁15	-9.60283
▁Lee	-9.60396
▁torture	-9.60716
▁direct	-9.60839
top	-9.60874
▁touch	-9.60899
ence	-9.60965
nna	-9.60997
Not	-9.6102
▁producers	-9.61062
ice	-9.61342
some	-9.61438
One	-9.61587
▁Lo	-9.61613
▁general	-9.61656
▁German	-9.61769
▁relationship	-9.61923
▁victim	-9.61966
▁cross	-9.62005
▁earlier	-9.62005
▁herself	-9.62005
▁period	-9.62005
▁political	-9.62005
▁Japanese	-9.62005
▁memorable	-9.62006
▁train	-9.62007
▁tale	-9.62007
▁appreciate	-9.62007
▁rich	-9.62008
▁adaptation	-9.62011
▁yes	-9.62022
▁agent	-9.62028
▁porn	-9.62029
▁moving	-9.62078
▁slightly	-9.62109
▁gone	-9.62228
")	-9.62288
▁oh	-9.62302
▁equal	-9.62325
▁musical	-9.62341
▁copy	-9.62388
rew	-9.6239
▁cute	-9.62602
▁sadly	-9.62766
▁control	-9.63083
uff	-9.63346
you	-9.63452
▁features	-9.63481
ten	-9.63542
▁consider	-9.63548
▁island	-9.63682
▁sign	-9.63706
▁filmed	-9.63968
▁party	-9.63977
▁insult	-9.64014
▁includ	-9.64105
▁King	-9.64163
▁50	-9.64266
We	-9.64407
▁sexual	-9.6441
97	-9.6458
▁clever	-9.64608
▁industry	-9.64637
▁clothes	-9.64637
▁crazy	-9.64637
▁drag	-9.6466
▁pure	-9.6466
▁otherwise	-9.64672
▁apart	-9.64695
▁crappy	-9.64707
▁perform	-9.64711
▁earth	-9.64719
▁g	-9.64785
▁NO	-9.64877
side	-9.64902
gu	-9.6503
▁9	-9.65217
▁rented	-9.65365
▁died	-9.65543
▁Here	-9.66207
▁wondering	-9.66302
▁within	-9.66434
ade	-9.66497
First	-9.66763
▁shame	-9.66786
▁cr	-9.66892
▁mis	-9.66894
▁visual	-9.66982
▁loved	-9.67238
▁Christian	-9.67317
▁personal	-9.67338
▁company	-9.67339
▁plenty	-9.67339
▁scientist	-9.67339
▁giant	-9.6734
▁Moore	-9.6734
▁amusing	-9.6734
▁sister	-9.67342
▁random	-9.67342
▁Me	-9.67355
▁absurd	-9.67364
▁catch	-9.67425
▁fell	-9.67449
ba	-9.67484
▁Watch	-9.67548
▁compared	-9.67559
par	-9.67565
▁wonderful	-9.67736
▁lacks	-9.68215
▁shooting	-9.68327
▁soldiers	-9.68494
▁walking	-9.68506
▁plane	-9.68685
▁Di	-9.68989
red	-9.69075
uit	-9.69158
▁th	-9.69289
▁per	-9.69367
uch	-9.69477
▁appeal	-9.69486
▁sleep	-9.69505
▁8	-9.69558
▁exist	-9.69566
old	-9.69709
even	-9.69847
▁Too	-9.69873
Don	-9.69878
▁state	-9.69892
▁surprise	-9.69985
▁Seagal	-9.70117
▁remote	-9.70117
▁turkey	-9.70117
▁whatsoever	-9.70117
▁western	-9.70118
▁conclusion	-9.70118
▁shallow	-9.70118
▁mistake	-9.70122
▁rubbish	-9.70122
▁further	-9.70122
▁atmosphere	-9.70126
▁unbelievable	-9.70135
▁fear	-9.70137
▁air	-9.70182
▁Peter	-9.70191
▁portrayal	-9.70195
▁easily	-9.7022
▁constantly	-9.7024
aw	-9.70256
▁sounds	-9.70264
▁display	-9.70294
▁Mary	-9.70456
▁folks	-9.70461
▁ra	-9.70505
▁sing	-9.70653
▁created	-9.70681
ial	-9.70721
ank	-9.70794
ite	-9.70798
▁added	-9.70919
ue	-9.71198
een	-9.71312
rs	-9.7144
j	-9.71697
▁members	-9.7182
▁Lu	-9.72241
ST	-9.72435
cy	-9.72502
▁Jo	-9.72606
▁chase	-9.72823
?!	-9.72838
▁channel	-9.72974
▁travel	-9.72974
▁interview	-9.72976
ned	-9.72978
▁impression	-9.72983
▁normal	-9.73037
▁charge	-9.73039
art	-9.73045
▁unfortunately	-9.7308
▁Star	-9.73211
▁sucked	-9.73288
xb	-9.73707
▁realistic	-9.73888
▁waiting	-9.73942
▁episodes	-9.73945
ock	-9.74081
led	-9.74439
▁happening	-9.74451
▁sat	-9.74611
ub	-9.7495
▁weren	-9.74962
my	-9.75026
ating	-9.75076
▁12	-9.75116
▁books	-9.75131
▁bar	-9.7515
▁Tr	-9.75173
???	-9.75245
After	-9.75341
ak	-9.75361
▁Da	-9.75412
ach	-9.75646
▁portray	-9.7567
▁stage	-9.75743
▁dance	-9.75821
▁mere	-9.75886
▁brilliant	-9.75915
▁Earth	-9.75916
▁answer	-9.75916
▁horse	-9.75916
▁lousy	-9.75916
▁ugly	-9.75918
▁animation	-9.75919
▁impossible	-9.75921
od	-9.75931
▁Dead	-9.75935
▁MST	-9.75944
▁tired	-9.75984
▁enjoyable	-9.76027
bo	-9.76205
▁extra	-9.7627
me	-9.76287
▁Where	-9.76319
▁younger	-9.76515
ker	-9.76595
▁considering	-9.76604
tra	-9.76675
▁grow	-9.76801
way	-9.76904
▁costumes	-9.77176
nother	-9.77193
▁Ro	-9.77199
▁highly	-9.77395
ber	-9.77407
▁sucks	-9.77847
ver	-9.77862
lin	-9.78051
No	-9.78313
▁emotional	-9.78673
▁ideas	-9.78757
▁Steve	-9.78871
▁mine	-9.7893
▁cult	-9.7894
▁century	-9.78946
▁confusing	-9.78946
▁embarrassing	-9.78946
▁explanation	-9.78946
▁truth	-9.78946
▁violent	-9.78946
▁depth	-9.78946
▁York	-9.78947
▁leaving	-9.78948
▁baby	-9.78948
▁nature	-9.78949
▁match	-9.78953
▁lady	-9.78957
▁saving	-9.78957
▁immediately	-9.78983
▁climax	-9.79009
▁Jim	-9.79009
▁prove	-9.79028
▁Charles	-9.79042
▁confused	-9.79055
▁rare	-9.7907
▁deserve	-9.7907
▁demon	-9.79118
▁motion	-9.79121
▁US	-9.79202
ight	-9.79267
▁vampire	-9.79362
▁Joe	-9.79392
▁watchable	-9.79455
▁laughs	-9.79491
▁changed	-9.79747
▁require	-9.79766
▁boys	-9.79816
▁ways	-9.7987
▁viewing	-9.7998
▁18	-9.80124
ah	-9.80174
▁entirely	-9.80253
▁William	-9.80457
▁di	-9.80493
▁Li	-9.80542
▁shock	-9.81008
▁reviewer	-9.81103
▁changes	-9.8122
▁19	-9.81408
▁ride	-9.81516
Oh	-9.81573
▁finish	-9.81621
▁recent	-9.81747
uck	-9.81963
▁Smith	-9.8207
▁creepy	-9.82071
▁fashion	-9.82071
▁mouth	-9.82071
▁romance	-9.82071
▁attitude	-9.82071
▁visit	-9.82071
▁expectations	-9.82072
▁information	-9.82075
▁glad	-9.82077
▁connection	-9.821
▁disturbing	-9.821
▁public	-9.82129
▁promise	-9.82139
ily	-9.82141
▁trailer	-9.8218
AR	-9.82182
▁intelligent	-9.82209
▁suddenly	-9.82242
▁Y	-9.82291
All	-9.82359
ette	-9.82423
▁Che	-9.82459
▁emotion	-9.82529
▁million	-9.82549
▁zombie	-9.82619
▁student	-9.82621
▁remain	-9.82628
▁week	-9.82649
▁Although	-9.82668
ec	-9.82805
▁casting	-9.82806
▁questions	-9.82893
▁sexy	-9.83014
▁pain	-9.83169
ack	-9.832
ring	-9.83256
ey	-9.83284
▁supposedly	-9.83523
▁skin	-9.83588
▁o	-9.836
eg	-9.8379
▁ch	-9.83992
unt	-9.84142
ka	-9.84242
ny	-9.84337
▁dramatic	-9.8434
min	-9.84441
▁miss	-9.84454
▁lacking	-9.84537
`	-9.84713
▁carry	-9.84717
budget	-9.84723
▁meaning	-9.84848
▁destroy	-9.84875
com	-9.84916
▁convincing	-9.84929
▁Se	-9.84974
80\	-9.85091
▁success	-9.8511
▁utter	-9.8516
▁sa	-9.85184
mm	-9.85255
au	-9.85278
▁Lynch	-9.85297
▁World	-9.85297
▁brief	-9.85297
▁angry	-9.85297
▁humour	-9.85297
▁mask	-9.85301
▁dying	-9.85305
▁tough	-9.85307
▁amateurish	-9.85309
▁popular	-9.85328
▁pretentious	-9.85345
▁victims	-9.85346
▁mad	-9.85363
▁bottom	-9.85364
▁city	-9.85379
▁loud	-9.85406
▁Everything	-9.85421
▁Steven	-9.8544
▁round	-9.85485
ise	-9.85491
▁heck	-9.86
ron	-9.86018
▁Movie	-9.86047
▁asked	-9.86073
iz	-9.86143
how	-9.86216
▁sn	-9.8623
▁longer	-9.86305
▁leader	-9.86312
▁shouldn	-9.86496
▁worked	-9.86538
▁talented	-9.86608
tion	-9.86632
▁flicks	-9.86744
▁following	-9.86786
▁shop	-9.86845
▁exception	-9.86909
▁plan	-9.87192
▁begins	-9.87225
eep	-9.87383
▁fat	-9.87583
ric	-9.87594
ail	-9.87608
cal	-9.87661
▁business	-9.8786
▁truck	-9.88074
▁eat	-9.8808
Now	-9.88102
ties	-9.8815
right	-9.88391
▁date	-9.88518
▁clue	-9.88596
▁lose	-9.88608
+	-9.88629
▁fault	-9.8863
▁process	-9.8863
▁cash	-9.88631
▁hurt	-9.88633
▁Mexican	-9.88633
▁sake	-9.88645
▁science	-9.88651
▁cold	-9.88654
▁step	-9.88656
▁mid	-9.88661
▁nonsense	-9.88699
▁Great	-9.88699
▁mark	-9.88707
▁language	-9.88719
▁somewhere	-9.88756
▁professional	-9.88765
ions	-9.88822
▁scenery	-9.88829
▁rape	-9.88844
▁sl	-9.88859
▁sell	-9.88867
ized	-9.8888
▁honestly	-9.89097
▁missed	-9.89213
▁Ben	-9.89231
▁doctor	-9.89322
▁bland	-9.89361
▁location	-9.8938
▁detail	-9.89395
ney	-9.89427
▁Day	-9.89676
▁makers	-9.89894
▁pieces	-9.89946
va	-9.9011
ony	-9.9022
ca	-9.90496
what	-9.91308
▁allow	-9.91443
▁monsters	-9.91457
_	-9.91492
director	-9.91505
▁Z	-9.91574
▁Sam	-9.91613
▁Space	-9.91839
▁force	-9.91926
▁program	-9.91963
ger	-9.92052
▁Bill	-9.92059
▁cave	-9.92077
▁club	-9.92078
▁exciting	-9.92078
▁Oscar	-9.92078
▁suspect	-9.9208
▁unfunny	-9.92098
▁grace	-9.92102
▁seconds	-9.92116
▁fantasy	-9.9213
▁join	-9.92132
▁Bruce	-9.9215
▁Dracula	-9.9215
▁flow	-9.92177
▁soft	-9.92183
▁brutal	-9.92184
▁Every	-9.92257
▁Night	-9.92268
▁pop	-9.92286
▁race	-9.92329
ong	-9.92331
▁thin	-9.92419
▁names	-9.92488
LY	-9.9252
▁allowed	-9.92534
An	-9.92839
▁choice	-9.92879
▁bird	-9.92909
▁vi	-9.93102
▁cost	-9.93128
▁inter	-9.93156
▁teenagers	-9.93281
▁alive	-9.93304
▁Sp	-9.9333
▁ball	-9.93629
He	-9.93742
▁YOU	-9.93774
AN	-9.94159
▁driv	-9.94164
ide	-9.94273
▁ru	-9.94338
ize	-9.94631
▁design	-9.94744
▁pi	-9.94758
▁boo	-9.94842
▁students	-9.95023
Whi	-9.9508
Why	-9.95085
house	-9.95092
ung	-9.95112
▁Du	-9.95113
ball	-9.95236
use	-9.95296
▁depict	-9.95596
▁desperate	-9.9565
▁genuine	-9.9565
▁chemistry	-9.95651
▁literally	-9.95651
▁boat	-9.95651
▁nucle	-9.95659
▁pair	-9.95661
▁jail	-9.95662
▁stock	-9.95669
▁season	-9.95669
▁insane	-9.9567
▁ran	-9.95676
▁uninteresting	-9.95684
▁Rock	-9.9569
▁African	-9.95691
▁Because	-9.95703
▁photography	-9.95706
▁ultimately	-9.95719
▁mystery	-9.95725
▁Take	-9.95726
▁era	-9.95753
▁Guy	-9.95756
▁edited	-9.95789
▁disgusting	-9.95795
▁Blood	-9.95809
▁Martin	-9.95839
▁mission	-9.95857
▁Jones	-9.95859
▁focus	-9.95876
▁treated	-9.95968
▁outside	-9.95981
▁utterly	-9.96037
▁portrayed	-9.96196
ship	-9.96254
▁keeps	-9.96282
▁eating	-9.96321
▁accident	-9.96327
▁singing	-9.96444
▁appeared	-9.96531
▁wall	-9.96679
▁Love	-9.96901
▁Con	-9.97005
▁animal	-9.97075
▁Mar	-9.97144
▁revolve	-9.9716
men	-9.97236
bit	-9.97289
▁bits	-9.97767
kin	-9.97908
▁laughed	-9.98266
▁r	-9.98309
ming	-9.98332
▁logic	-9.9836
ors	-9.98458
end	-9.98559
ame	-9.98616
▁Chris	-9.98656
▁n	-9.9866
▁record	-9.98732
American	-9.9878
idden	-9.98782
▁charm	-9.98805
ff	-9.98837
▁junk	-9.98866
▁develop	-9.98883
▁listen	-9.98884
▁apparent	-9.99009
▁absolute	-9.9901
▁pan	-9.99019
ile	-9.99055
▁product	-9.99304
▁host	-9.99343
▁author	-9.99348
▁accurate	-9.99353
▁boyfriend	-9.99353
▁contrived	-9.99353
▁narrative	-9.99353
▁society	-9.99353
▁promising	-9.99353
▁regular	-9.99353
▁heavy	-9.99354
▁presence	-9.99354
▁Power	-9.99354
▁asleep	-9.99354
▁imagination	-9.99355
▁blind	-9.99355
▁tension	-9.99356
▁office	-9.99381
▁dad	-9.99382
▁studio	-9.99382
▁thus	-9.99394
▁reach	-9.99401
▁Disney	-9.99409
▁street	-9.99413
▁eventually	-9.99426
▁frame	-9.99427
▁station	-9.99428
▁machine	-9.99431
▁Black	-9.99453
▁Jane	-9.99454
▁Film	-9.99475
evin	-9.995
How	-9.9953
▁moral	-9.99586
star	-9.99635
▁moves	-9.99644
▁More	-9.99812
ery	-9.99827
OR	-9.99972
▁intended	-10.0006
▁blame	-10.0018
▁cinematic	-10.0022
mar	-10.0033
▁situations	-10.0034
▁led	-10.004
▁track	-10.0046
Re	-10.005
▁adult	-10.0051
▁dream	-10.0055
rated	-10.0061
▁values	-10.0065
▁mo	-10.0065
ED	-10.0085
▁area	-10.0089
▁ready	-10.0096
▁images	-10.0116
▁Any	-10.0118
▁lover	-10.0126
they	-10.0133
over	-10.0134
ze	-10.0146
ler	-10.0146
con	-10.0149
▁news	-10.0152
istic	-10.0188
▁dude	-10.0189
▁magic	-10.02
X	-10.0259
che	-10.0261
▁hang	-10.0261
Some	-10.0262
▁deserves	-10.0264
making	-10.0267
▁loose	-10.0285
▁sea	-10.0286
EN	-10.0286
▁involve	-10.0288
ina	-10.0302
▁survive	-10.0304
▁Angel	-10.0307
atur	-10.0316
▁Lewis	-10.032
▁London	-10.032
▁Queen	-10.032
▁approach	-10.032
▁awkward	-10.032
▁convince	-10.032
▁mysterious	-10.032
▁suicide	-10.032
▁tedious	-10.032
▁zero	-10.032
▁content	-10.032
▁indeed	-10.032
▁difference	-10.032
▁search	-10.032
▁Danny	-10.0321
▁enter	-10.0321
▁appearance	-10.0322
▁length	-10.0326
▁effective	-10.0326
▁opportunity	-10.0327
▁anywhere	-10.0328
OK	-10.0329
▁Good	-10.0329
▁load	-10.0332
▁afraid	-10.0332
▁Despi	-10.0333
▁pretend	-10.0335
▁army	-10.0337
▁laughter	-10.0338
▁phone	-10.0339
▁13	-10.034
▁advice	-10.0341
lock	-10.0343
▁greatest	-10.0353
▁en	-10.0362
▁recently	-10.0363
▁endless	-10.0369
ham	-10.0382
▁:	-10.0385
▁w	-10.0403
▁seat	-10.0417
▁murdered	-10.0421
▁include	-10.0447
▁ghost	-10.0449
gi	-10.0454
▁Ch	-10.0457
lly	-10.0461
▁ski	-10.0473
▁lighting	-10.0476
▁teen	-10.0478
▁lu	-10.0485
▁blow	-10.0495
ities	-10.054
▁40	-10.0553
work	-10.0563
rap	-10.0581
oth	-10.0592
ping	-10.0623
▁featur	-10.0658
▁drink	-10.0658
▁Sh	-10.0659
That	-10.0663
looking	-10.0676
▁100	-10.0677
▁natural	-10.0684
▁Kill	-10.0685
▁red	-10.0696
***	-10.0706
starring	-10.0717
▁favor	-10.0719
▁complex	-10.072
▁horribly	-10.072
▁intelligence	-10.072
▁likable	-10.072
▁nobody	-10.072
▁serial	-10.072
▁dreadful	-10.072
▁government	-10.072
▁Girl	-10.072
▁tape	-10.072
▁push	-10.072
▁naked	-10.072
▁relative	-10.0721
▁culture	-10.0721
▁Paris	-10.0722
▁Howard	-10.0723
▁personality	-10.0724
▁Kane	-10.0724
▁Out	-10.0725
▁screenwriter	-10.0727
▁unlike	-10.0729
▁Moon	-10.073
▁familiar	-10.0732
▁sight	-10.0733
▁stinker	-10.0735
▁correct	-10.0735
▁letter	-10.0736
▁Jr	-10.0739
▁rental	-10.0741
▁mar	-10.0744
▁ability	-10.0747
Let	-10.0749
▁Sa	-10.075
▁below	-10.0759
▁Can	-10.0761
ving	-10.0767
▁generally	-10.0775
▁bank	-10.0779
▁suck	-10.0786
▁Ba	-10.079
▁rid	-10.0795
▁return	-10.0814
▁Hell	-10.0836
we	-10.0843
▁whom	-10.0851
▁gangster	-10.0861
▁criminal	-10.0864
▁producer	-10.089
▁Mc	-10.0895
sen	-10.0922
▁acts	-10.0944
fully	-10.0974
fa	-10.0983
low	-10.0985
▁skip	-10.0994
▁bed	-10.0995
Q	-10.1028
▁details	-10.1041
ute	-10.1059
▁remains	-10.1062
▁steal	-10.1074
Overall	-10.1078
year	-10.108
back	-10.1083
▁reveal	-10.1092
good	-10.1092
▁su	-10.1102
core	-10.1103
▁drunk	-10.1133
▁chick	-10.1135
▁commit	-10.1135
▁everybody	-10.1137
▁evidence	-10.1137
▁technical	-10.1137
▁thousand	-10.1137
▁clean	-10.1137
▁innocent	-10.1137
▁awesome	-10.1137
▁mountain	-10.1137
▁network	-10.1137
▁available	-10.1137
▁curious	-10.1137
▁1950	-10.1137
▁failure	-10.1137
▁bodies	-10.1137
▁stuck	-10.1139
▁fame	-10.1139
▁boss	-10.114
▁six	-10.114
▁reaction	-10.1141
▁Miss	-10.1142
▁Russian	-10.1143
ound	-10.1147
▁People	-10.115
TV	-10.1153
▁master	-10.1154
▁unintentionally	-10.1156
ep	-10.1157
▁Please	-10.1157
▁Chan	-10.1157
▁directors	-10.116
▁Other	-10.1163
▁aim	-10.1167
▁band	-10.1172
▁driver	-10.1184
▁screaming	-10.1188
cing	-10.119
▁noticed	-10.119
▁wise	-10.1192
▁X	-10.12
▁willing	-10.1203
cul	-10.1207
▁`	-10.1213
▁soul	-10.1218
▁v	-10.1241
fest	-10.1246
see	-10.1255
ince	-10.1257
▁planet	-10.126
Do	-10.1267
▁weapons	-10.1271
▁Did	-10.1273
▁scare	-10.1281
▁Ann	-10.1292
▁fi	-10.1302
▁contain	-10.1303
our	-10.1349
OL	-10.1357
her	-10.137
▁helped	-10.1373
▁met	-10.1375
fer	-10.1394
▁adventure	-10.1397
▁hat	-10.1401
▁Har	-10.1406
▁Red	-10.1429
▁adds	-10.1434
▁Cor	-10.1438
ven	-10.1438
ept	-10.1462
dom	-10.1469
ction	-10.147
??	-10.1485
ward	-10.1485
▁hunt	-10.1494
Maybe	-10.1514
screen	-10.1514
film	-10.1514
▁sympath	-10.1521
▁fool	-10.1525
row	-10.1532
▁historical	-10.1535
▁bear	-10.1537
made	-10.1543
▁board	-10.1544
▁cry	-10.1554
▁gold	-10.1569
▁consist	-10.1571
▁President	-10.1571
▁lesbian	-10.1571
▁refuse	-10.1571
▁Two	-10.1571
▁AND	-10.1571
▁discuss	-10.1571
▁jerk	-10.1571
▁wander	-10.1572
▁window	-10.1572
▁green	-10.1572
▁switch	-10.1572
▁caught	-10.1572
▁edge	-10.1572
▁assume	-10.1573
▁4/10	-10.1573
▁excited	-10.1573
▁mock	-10.1575
▁dare	-10.1575
▁broken	-10.1576
▁grand	-10.1576
▁Ryan	-10.1578
▁impressive	-10.1578
▁masterpiece	-10.1578
Next	-10.1579
▁Ne	-10.1579
▁Charlie	-10.1579
▁Paul	-10.1582
▁Show	-10.1583
▁road	-10.1583
▁Bob	-10.1586
▁limited	-10.1586
▁loser	-10.1588
▁fe	-10.1593
▁Still	-10.1596
▁teacher	-10.1599
▁field	-10.1599
▁hopes	-10.1601
▁drugs	-10.1604
▁knowing	-10.1604
▁Matt	-10.1606
▁Anyway	-10.162
▁Park	-10.163
▁Time	-10.1637
▁bloody	-10.1656
▁shocking	-10.1658
cent	-10.166
▁tie	-10.1662
▁explained	-10.1672
uring	-10.1678
▁followed	-10.172
▁forever	-10.1721
ip	-10.1728
ied	-10.1735
▁rated	-10.1736
▁fights	-10.1751
▁j	-10.1752
▁Ni	-10.1756
▁member	-10.1759
ped	-10.1772
▁brothers	-10.1776
▁farm	-10.1781
▁flaws	-10.1787
▁aspects	-10.1798
▁Dan	-10.1805
▁issues	-10.1823
though	-10.1825
▁gl	-10.1829
ory	-10.1841
▁tone	-10.1844
grade	-10.1853
ean	-10.1864
bout	-10.1873
▁Ri	-10.1876
▁cops	-10.1883
▁prefer	-10.1889
▁whi	-10.1891
▁sum	-10.1892
▁dies	-10.1895
▁Pa	-10.1909
▁Sci	-10.1926
▁Mad	-10.1926
pi	-10.1933
rk	-10.1935
▁zombies	-10.1948
▁faces	-10.1956
▁roll	-10.1967
Where	-10.1968
▁arts	-10.1975
▁aside	-10.1979
ink	-10.1979
▁disappear	-10.1981
Yes	-10.2007
▁pen	-10.2009
▁teenage	-10.2019
▁Saudi	-10.2026
▁addition	-10.2026
▁central	-10.2026
▁encounter	-10.2026
▁franchise	-10.2026
▁irritating	-10.2026
▁negative	-10.2026
▁regret	-10.2026
▁vehicle	-10.2026
▁beauty	-10.2026
▁rival	-10.2026
▁pilot	-10.2026
▁double	-10.2026
▁Norris	-10.2026
▁memory	-10.2026
▁center	-10.2026
▁current	-10.2026
▁therefore	-10.2026
▁alright	-10.2026
▁service	-10.2026
▁married	-10.2026
▁terrific	-10.2026
▁minor	-10.2027
▁continuity	-10.2027
▁Robin	-10.2027
▁unique	-10.2028
▁Jackson	-10.203
▁Catherine	-10.203
▁Dar	-10.2032
▁impact	-10.2032
▁artistic	-10.2032
▁genius	-10.2033
bad	-10.2034
▁plus	-10.2038
▁officer	-10.2039
▁Never	-10.204
▁yeah	-10.2041
▁freak	-10.2044
▁45	-10.2044
▁****	-10.2049
▁originality	-10.2055
▁City	-10.2056
▁Dark	-10.2059
▁ON	-10.2061
▁actresses	-10.2066
▁developed	-10.2082
▁bright	-10.2084
▁telling	-10.2086
▁Ka	-10.209
▁finished	-10.2092
▁personally	-10.2093
▁lock	-10.2099
▁Mel	-10.2102
▁beach	-10.2102
uous	-10.2115
▁higher	-10.2115
ual	-10.2117
▁k	-10.2117
wood	-10.2118
ning	-10.2118
▁seeming	-10.2119
gging	-10.2123
▁May	-10.2131
▁stereotypes	-10.2135
▁Come	-10.2138
▁according	-10.2139
▁lived	-10.2152
▁bothered	-10.2158
att	-10.2158
▁Am	-10.2169
▁warm	-10.2169
pp	-10.217
▁terms	-10.2173
▁unrealistic	-10.2199
▁hated	-10.2202
▁paint	-10.2205
▁issue	-10.2244
▁standard	-10.225
▁im	-10.2255
are	-10.2257
▁ill	-10.2261
▁likely	-10.2291
void	-10.2292
▁artist	-10.2298
▁contains	-10.2316
▁gr	-10.232
ible	-10.2329
▁feelings	-10.237
wn	-10.2399
action	-10.2401
plot	-10.2444
style	-10.2444
Just	-10.2445
Jack	-10.2446
▁grat	-10.2447
played	-10.2449
night	-10.2454
▁Tim	-10.2455
▁bore	-10.2475
▁punch	-10.2496
terribly	-10.2502
▁Texas	-10.2502
▁Wayne	-10.2502
▁cheese	-10.2502
▁comparison	-10.2502
▁dancing	-10.2502
▁embarrassed	-10.2502
▁energy	-10.2502
▁motivation	-10.2502
▁necessary	-10.2502
▁teeth	-10.2502
▁unnecessary	-10.2502
▁device	-10.2502
▁Fox	-10.2502
▁root	-10.2502
▁somebody	-10.2503
▁football	-10.2503
▁Adam	-10.2503
▁Moses	-10.2503
▁responsible	-10.2503
▁rise	-10.2503
▁Devil	-10.2503
▁screw	-10.2504
▁witty	-10.2504
▁Barry	-10.2504
▁60	-10.2504
▁coach	-10.2505
▁statement	-10.2506
▁Horror	-10.2506
▁slapstick	-10.2506
▁graphic	-10.2508
▁gra	-10.2508
▁Actually	-10.2509
▁Halloween	-10.2509
▁sent	-10.251
▁bi	-10.251
▁anymore	-10.251
▁goofy	-10.2512
▁choose	-10.2513
▁DO	-10.2514
▁social	-10.2517
▁Get	-10.2519
▁becoming	-10.2521
▁mildly	-10.2524
▁damn	-10.2527
dead	-10.2529
▁Very	-10.2534
▁owner	-10.2536
▁wide	-10.2536
ale	-10.2537
▁Does	-10.2541
▁spin	-10.2541
They	-10.2544
▁soap	-10.2557
99	-10.2561
▁Ar	-10.2562
▁designed	-10.2564
▁destroyed	-10.2569
▁scared	-10.2573
▁Po	-10.258
▁provided	-10.2586
▁sequels	-10.2595
▁murderer	-10.2597
▁presented	-10.2605
▁Bar	-10.2605
▁inept	-10.2624
▁poster	-10.2626
On	-10.2648
ane	-10.2652
ino	-10.2652
▁pet	-10.2656
▁critics	-10.2658
▁note	-10.2668
let	-10.2679
▁heads	-10.2679
▁slowly	-10.2681
▁renting	-10.2687
▁Vi	-10.2688
▁ruin	-10.2692
▁ahead	-10.2692
▁Ho	-10.2693
ried	-10.2696
▁asks	-10.2699
▁Americans	-10.2699
▁claim	-10.2704
▁worthy	-10.2713
▁rescue	-10.2733
▁element	-10.2736
▁li	-10.2748
mate	-10.2754
RA	-10.2756
▁spirit	-10.2763
don	-10.2766
▁le	-10.2771
▁standards	-10.2779
▁?	-10.2783
?).	-10.2787
az	-10.2795
rate	-10.2809
▁guns	-10.2821
▁adults	-10.2848
▁understanding	-10.286
▁costs	-10.2875
▁1.	-10.2889
port	-10.2896
ja	-10.2904
▁imp	-10.2907
▁Fa	-10.2912
very	-10.2917
ook	-10.2918
▁scream	-10.2941
▁extras	-10.2944
ral	-10.2945
life	-10.2945
%	-10.2955
▁treat	-10.2956
▁concern	-10.2957
lie	-10.2967
▁quick	-10.2968
read	-10.2982
▁fift	-10.2983
▁stink	-10.2985
▁base	-10.2985
▁fiction	-10.2994
#	-10.2999
▁amateur	-10.3
▁represent	-10.3
▁object	-10.3001
);	-10.3001
▁Hitchcock	-10.3002
▁Nicole	-10.3002
▁abysmal	-10.3002
▁disbelief	-10.3002
▁hundred	-10.3002
▁knock	-10.3002
▁revenge	-10.3002
▁crowd	-10.3002
▁ALL	-10.3002
▁priest	-10.3002
▁Zoey	-10.3002
▁paper	-10.3002
▁surround	-10.3002
▁wild	-10.3002
▁hospital	-10.3002
▁vague	-10.3002
▁instance	-10.3002
▁Jerry	-10.3002
▁opposite	-10.3002
▁legend	-10.3003
▁native	-10.3003
▁decade	-10.3003
▁Roger	-10.3003
▁surface	-10.3003
▁massive	-10.3003
▁attractive	-10.3004
▁stereotypical	-10.3004
▁crack	-10.3004
▁fellow	-10.3004
▁Brian	-10.3004
▁3/10	-10.3004
▁expert	-10.3005
▁drop	-10.3006
▁halfway	-10.3006
▁plastic	-10.3007
▁Bible	-10.3009
!).	-10.3009
▁tw	-10.3011
▁Lone	-10.3017
▁Rick	-10.302
▁powerful	-10.3022
▁Was	-10.3024
▁introduced	-10.3024
▁hint	-10.3028
▁lesson	-10.3028
▁sympathy	-10.3029
▁Rand	-10.3035
▁key	-10.3037
▁bigger	-10.3038
▁ratings	-10.3045
▁forgotten	-10.3052
▁campy	-10.3066
▁Overall	-10.3074
▁showed	-10.3079
▁beside	-10.3082
▁offend	-10.3092
ump	-10.3101
▁Cat	-10.3105
ain	-10.3118
▁fail	-10.3154
▁("	-10.3174
▁ice	-10.3177
▁tr	-10.3177
▁saved	-10.3185
▁TO	-10.319
▁Hard	-10.3199
▁pe	-10.3203
▁hire	-10.3205
ries	-10.3206
▁older	-10.3208
▁sin	-10.321
▁van	-10.3216
ki	-10.3217
▁kick	-10.3225
ON	-10.3232
igh	-10.3238
▁law	-10.3242
▁idiot	-10.3251
▁commercial	-10.3258
▁spot	-10.3277
vin	-10.3285
▁filmmaker	-10.3291
head	-10.3297
▁ain	-10.3304
▁hey	-10.3313
▁carrie	-10.3342
▁Roberts	-10.3342
▁Dian	-10.3347
)"	-10.3356
▁aspect	-10.3388
AT	-10.3399
pro	-10.3407
RE	-10.3416
where	-10.3432
▁emotions	-10.3436
▁intention	-10.3443
Z	-10.3468
while	-10.3469
Anyway	-10.347
comedy	-10.3472
However	-10.3473
...'	-10.3474
▁accept	-10.3479
den	-10.348
ath	-10.349
▁luck	-10.3506
there	-10.3507
/10	-10.3523
▁formula	-10.3525
car	-10.3525
▁exploit	-10.3526
pecial	-10.3527
▁occur	-10.3528
▁hide	-10.3528
▁virtual	-10.3528
▁Little	-10.3528
▁empty	-10.3528
▁generous	-10.3528
▁individual	-10.3528
▁influence	-10.3528
▁psycho	-10.3528
▁qualities	-10.3528
▁research	-10.3528
▁silent	-10.3528
▁succeed	-10.3528
▁twenty	-10.3528
▁unconvincing	-10.3528
▁uninspired	-10.3528
▁sweet	-10.3528
▁affair	-10.3528
▁numero	-10.3528
▁tree	-10.3529
▁merit	-10.353
▁Ranger	-10.353
▁Mike	-10.353
▁trick	-10.353
▁Yet	-10.3531
▁conflict	-10.3533
▁chosen	-10.3534
▁hack	-10.3534
▁dirty	-10.3537
▁Larry	-10.3537
▁born	-10.3539
▁compelling	-10.354
▁USA	-10.3541
▁lovely	-10.3541
▁grave	-10.3542
▁Really	-10.3544
▁Evan	-10.3544
▁impressed	-10.3544
ging	-10.3546
hoo	-10.3548
▁em	-10.3551
▁passion	-10.3553
▁Director	-10.3555
▁Yeah	-10.3556
▁useless	-10.3558
▁warned	-10.3558
At	-10.3558
▁gory	-10.356
▁Sadly	-10.3562
▁trust	-10.3562
▁wit	-10.357
▁concerned	-10.3576
▁incredible	-10.3578
▁ob	-10.3586
▁Mac	-10.3586
▁revealed	-10.3586
▁Avoid	-10.3591
▁justice	-10.3595
Un	-10.3601
▁_	-10.3619
▁shower	-10.3623
▁praise	-10.3635
vo	-10.3638
▁Satan	-10.364
▁du	-10.3643
▁Stan	-10.3647
▁Uni	-10.3652
zy	-10.3652
50	-10.3653
▁skills	-10.3655
▁grade	-10.3664
izing	-10.3674
ita	-10.3688
nch	-10.3695
▁thanks	-10.3698
▁buying	-10.3722
▁tend	-10.3725
▁calls	-10.3728
nce	-10.3742
▁separate	-10.3752
▁flaw	-10.3772
▁arm	-10.3777
har	-10.3795
grown	-10.3804
▁protagonist	-10.3807
▁subplot	-10.3808
▁image	-10.3816
▁recommended	-10.382
▁Williams	-10.3827
▁Gi	-10.3849
▁Hav	-10.385
▁u	-10.3853
▁Fe	-10.3855
onic	-10.3861
!!!!	-10.3863
list	-10.3872
▁cla	-10.3873
▁protect	-10.3882
gotten	-10.3889
ious	-10.3891
▁hadn	-10.3893
oh	-10.3902
▁loves	-10.3903
▁believed	-10.3907
Ma	-10.3909
▁2.	-10.3917
▁animals	-10.3928
set	-10.3949
▁cares	-10.3955
▁locations	-10.3959
▁fo	-10.3971
▁Will	-10.3975
AD	-10.3987
sure	-10.3997
face	-10.3999
▁crash	-10.4015
iness	-10.4019
dimensional	-10.4024
real	-10.4024
▁II	-10.4026
With	-10.4027
▁youth	-10.4041
▁surprising	-10.4049
▁abuse	-10.4051
▁capture	-10.4053
▁relate	-10.4077
▁breath	-10.4083
▁wanna	-10.4083
▁Bullock	-10.4084
▁THIS	-10.4084
▁Thomas	-10.4084
▁Vampire	-10.4084
▁associate	-10.4084
▁corpse	-10.4084
▁offensive	-10.4084
▁pacing	-10.4084
▁repetitive	-10.4084
▁routine	-10.4084
▁system	-10.4084
▁target	-10.4084
▁wreck	-10.4084
▁atrocious	-10.4084
▁task	-10.4084
▁Cinema	-10.4084
▁account	-10.4084
▁gross	-10.4084
▁FBI	-10.4084
▁fresh	-10.4084
▁nasty	-10.4084
▁guest	-10.4084
▁superior	-10.4084
▁detective	-10.4084
▁began	-10.4084
▁Barney	-10.4085
▁sentence	-10.4085
▁creative	-10.4085
▁treatment	-10.4085
▁comedian	-10.4086
▁dump	-10.4086
▁tight	-10.4087
▁sitcom	-10.4088
▁commentary	-10.4088
▁advise	-10.4089
▁Gold	-10.4089
▁highlight	-10.409
▁Dame	-10.409
▁Jackie	-10.4091
▁thoroughly	-10.4091
▁amaze	-10.4092
▁1970	-10.4092
▁hotel	-10.4093
▁generation	-10.4093
▁attract	-10.4094
▁Karen	-10.4094
▁lift	-10.4096
▁aware	-10.4096
atch	-10.4097
hy	-10.4098
▁corny	-10.4099
▁table	-10.4101
▁experiment	-10.4102
▁Though	-10.4102
▁Angela	-10.4103
▁model	-10.4105
▁cable	-10.4105
▁mom	-10.4112
▁None	-10.4113
▁share	-10.4118
▁Look	-10.4118
▁hits	-10.412
▁surprisingly	-10.4124
▁foot	-10.413
▁Bu	-10.4131
▁Cha	-10.4144
▁singer	-10.4146
▁Rod	-10.4147
▁audiences	-10.4147
▁delivers	-10.415
▁Part	-10.4155
di	-10.4187
ford	-10.4187
▁IT	-10.4191
existent	-10.4203
▁sleeping	-10.421
▁core	-10.4224
▁twists	-10.4228
▁talks	-10.4236
ins	-10.4237
▁bull	-10.4239
▁Mi	-10.4273
▁aliens	-10.4284
ire	-10.4299
run	-10.43
▁Hal	-10.4308
▁para	-10.4312
▁button	-10.4313
long	-10.4322
▁Count	-10.4327
▁Ti	-10.4354
▁par	-10.436
▁Hu	-10.4368
▁fantastic	-10.4371
▁Ta	-10.4385
▁angle	-10.4402
ple	-10.4428
she	-10.4435
under	-10.4436
Then	-10.4462
liners	-10.4467
▁Boy	-10.4476
▁themes	-10.4479
▁Pre	-10.4495
**	-10.45
▁Big	-10.4506
▁player	-10.4508
▁actions	-10.4536
gar	-10.4554
▁ne	-10.456
▁seek	-10.4562
ged	-10.4564
tribute	-10.4565
rapped	-10.4572
▁See	-10.4574
▁hasn	-10.4581
▁na	-10.4592
roll	-10.4593
▁complain	-10.4608
Also	-10.4615
John	-10.4615
especially	-10.4615
fight	-10.4621
aving	-10.4627
Fro	-10.4628
..."	-10.4637
▁Jon	-10.4638
▁raise	-10.4643
▁command	-10.4644
oy	-10.4655
▁compare	-10.4657
ress	-10.4665
type	-10.4666
▁predict	-10.4668
▁Qui	-10.4671
away	-10.4671
▁Arnold	-10.4672
▁Murphy	-10.4672
▁Wagner	-10.4672
▁Women	-10.4672
▁assistant	-10.4672
▁gruesome	-10.4672
▁horrid	-10.4672
▁poverty	-10.4672
▁print	-10.4672
▁quote	-10.4672
▁Brown	-10.4672
▁Taylor	-10.4672
▁cheerlead	-10.4672
▁martial	-10.4672
▁belief	-10.4672
▁funnier	-10.4672
▁Helsing	-10.4672
▁egg	-10.4672
▁flesh	-10.4672
▁source	-10.4672
▁incident	-10.4672
▁Captain	-10.4672
▁blah	-10.4672
▁parody	-10.4672
▁splatter	-10.4672
▁Ninja	-10.4672
▁Western	-10.4672
▁prostitute	-10.4672
▁morning	-10.4673
▁replace	-10.4673
▁solid	-10.4673
▁1960	-10.4673
▁THAT	-10.4673
▁existence	-10.4674
▁Tommy	-10.4674
▁Edward	-10.4674
▁propaganda	-10.4674
▁shut	-10.4675
▁relief	-10.4676
▁Max	-10.4676
hip	-10.4676
▁idiotic	-10.4677
▁essentially	-10.4678
▁Noah	-10.4678
▁UK	-10.4678
▁safe	-10.4679
▁drawn	-10.468
▁Sound	-10.4682
▁earn	-10.4683
▁lies	-10.4684
▁pile	-10.4685
▁fix	-10.4686
▁tank	-10.4686
▁independent	-10.4686
▁Dien	-10.4687
▁gather	-10.4688
▁borrow	-10.469
▁loss	-10.469
▁smile	-10.4691
live	-10.4693
▁Boll	-10.4694
▁mindless	-10.4695
▁reporter	-10.4696
▁Second	-10.4699
▁rank	-10.4701
▁captured	-10.4705
▁rushed	-10.4706
boy	-10.4707
▁stupidity	-10.4708
▁Fred	-10.4711
▁Sheen	-10.4711
▁recall	-10.4712
bar	-10.4713
▁judge	-10.4715
▁flying	-10.4723
▁mile	-10.4723
▁ruined	-10.4727
▁cringe	-10.4732
▁Ray	-10.4734
▁3.	-10.4736
▁Bam	-10.4739
Be	-10.4741
▁jo	-10.4744
▁rolling	-10.4753
▁crying	-10.4757
▁Wor	-10.4771
▁previously	-10.4776
▁realized	-10.478
▁solve	-10.4784
▁Je	-10.4796
ical	-10.4806
air	-10.4818
▁def	-10.4826
ew	-10.4827
ool	-10.4827
tended	-10.4831
▁dollars	-10.4832
▁leg	-10.4844
▁suffers	-10.4851
▁cur	-10.4857
▁puppets	-10.4866
ative	-10.4873
▁10.	-10.4876
▁card	-10.4881
▁references	-10.4883
▁talents	-10.4901
▁scripted	-10.4905
▁numbers	-10.4912
▁dec	-10.4937
▁site	-10.4943
▁angles	-10.4951
▁se	-10.4963
▁players	-10.4983
▁commercials	-10.4985
▁caus	-10.5002
act	-10.5004
▁Por	-10.5009
▁expression	-10.5025
▁meeting	-10.5026
▁costume	-10.5031
Fi	-10.5032
▁Ber	-10.5033
cra	-10.5037
ou	-10.5043
▁scar	-10.5051
▁soldier	-10.5059
filled	-10.5065
ky	-10.507
▁gal	-10.5072
cious	-10.5086
▁Men	-10.5089
lon	-10.5096
than	-10.5103
ET	-10.5104
▁den	-10.5133
▁melodrama	-10.5144
▁ya	-10.5146
▁sole	-10.5161
▁Are	-10.5182
▁struggle	-10.5185
▁repeat	-10.5187
play	-10.5193
▁weeks	-10.5193
▁burn	-10.5204
▁vampires	-10.5211
ren	-10.5215
tri	-10.5216
▁rob	-10.5218
▁chi	-10.5222
▁draw	-10.5227
horror	-10.524
ular	-10.5242
watch	-10.5243
Even	-10.5243
Avoid	-10.5248
▁stretch	-10.525
▁connect	-10.5251
▁wrestl	-10.5257
.....	-10.526
▁sudden	-10.5263
▁exact	-10.5264
▁proper	-10.5267
▁Ru	-10.5269
Although	-10.5278
till	-10.5291
▁Wi	-10.5291
▁El	-10.5293
entific	-10.5294
miss	-10.5296
▁Campbell	-10.5297
▁Washington	-10.5297
▁astronaut	-10.5297
▁buddies	-10.5297
▁colour	-10.5297
▁depressing	-10.5297
▁exercise	-10.5297
▁helicopter	-10.5297
▁implausible	-10.5297
▁jungle	-10.5297
▁ludicrous	-10.5297
▁newspaper	-10.5297
▁pitiful	-10.5297
▁position	-10.5297
▁religious	-10.5297
▁strength	-10.5297
▁summary	-10.5297
▁unusual	-10.5297
▁variety	-10.5297
▁downhill	-10.5297
▁intriguing	-10.5297
▁Sandra	-10.5297
▁competition	-10.5297
▁risk	-10.5297
▁stiff	-10.5297
▁clothing	-10.5297
▁General	-10.5297
▁Jesse	-10.5297
▁court	-10.5297
▁cruel	-10.5297
▁crude	-10.5298
▁shark	-10.5298
▁ashamed	-10.5298
▁Grade	-10.5298
▁Stone	-10.5298
▁forgot	-10.5298
▁twice	-10.5298
▁drags	-10.5298
▁terrorist	-10.5299
▁fuel	-10.5299
▁collection	-10.5299
▁stopped	-10.53
▁stolen	-10.5301
▁theatre	-10.5302
▁spare	-10.5303
▁chicken	-10.5303
▁Solomon	-10.5303
▁Stupid	-10.5303
▁spoof	-10.5303
▁foreign	-10.5303
▁relie	-10.5304
▁animated	-10.5305
▁demand	-10.5307
▁guilty	-10.531
▁prepared	-10.531
▁latter	-10.5311
▁danger	-10.5314
▁test	-10.5315
20	-10.5315
▁manner	-10.5318
▁pity	-10.5318
uh	-10.5319
▁upset	-10.5323
▁PG	-10.5325
▁SPOILERS	-10.5326
▁worthless	-10.5328
?'	-10.5328
▁receive	-10.5329
▁heroes	-10.5341
Only	-10.5342
▁blo	-10.5342
▁warning	-10.5342
▁joy	-10.5346
▁wa	-10.535
▁Bay	-10.5351
▁op	-10.5369
▁emotionally	-10.5374
▁Joan	-10.538
more	-10.5383
▁anger	-10.5384
▁Na	-10.5389
▁Brooks	-10.5394
▁Ste	-10.5404
▁focused	-10.5407
▁Jenn	-10.5411
▁rap	-10.5418
▁sun	-10.5423
▁Ms	-10.5426
THE	-10.543
▁comical	-10.5438
berg	-10.5445
▁learned	-10.5452
▁IN	-10.5458
nu	-10.5472
▁accents	-10.5477
LE	-10.5482
▁dro	-10.55
▁flashbacks	-10.5504
▁strip	-10.552
▁closed	-10.5522
▁range	-10.5525
▁mob	-10.5526
▁games	-10.5536
▁arrive	-10.5538
▁speaking	-10.5538
▁Str	-10.5539
▁stands	-10.5555
▁Gar	-10.5573
La	-10.5581
▁bag	-10.5602
other	-10.5619
▁ja	-10.5631
▁Sha	-10.5645
▁fund	-10.5654
▁medic	-10.5656
lia	-10.5659
▁color	-10.5668
Ha	-10.5679
▁conversation	-10.5689
hard	-10.5695
ought	-10.5697
hand	-10.5714
tain	-10.572
▁ghosts	-10.5741
▁cameo	-10.5748
▁bite	-10.576
▁includes	-10.5762
▁Mu	-10.5772
ture	-10.5779
▁Mil	-10.578
▁Alex	-10.5782
▁Gra	-10.5811
▁places	-10.5822
▁focuse	-10.5823
ern	-10.5836
called	-10.5863
nyone	-10.5875
down	-10.5879
▁preci	-10.5895
▁spoil	-10.59
school	-10.5904
Unfortunately	-10.5906
▁Hunt	-10.5906
Most	-10.5906
when	-10.5907
board	-10.5907
▁hook	-10.5909
worthy	-10.591
aked	-10.5911
come	-10.5915
law	-10.5922
▁wound	-10.5929
▁mental	-10.5932
▁Pat	-10.5956
▁speech	-10.596
▁Cameron	-10.5964
▁Chinese	-10.5964
▁Kennedy	-10.5964
▁Pinhead	-10.5964
▁Sheriff	-10.5964
▁Tanzania	-10.5964
▁Wilson	-10.5964
▁celluloid	-10.5964
▁childhood	-10.5964
▁climb	-10.5964
▁decision	-10.5964
▁determine	-10.5964
▁fascinating	-10.5964
▁generic	-10.5964
▁incoherent	-10.5964
▁miserably	-10.5964
▁pleasure	-10.5964
▁puzzle	-10.5964
▁recognize	-10.5964
▁reduce	-10.5964
▁smoke	-10.5964
▁spectacular	-10.5964
▁tragedy	-10.5964
▁village	-10.5964
▁harsh	-10.5964
▁Christmas	-10.5964
▁ANY	-10.5964
▁prevent	-10.5964
▁queen	-10.5964
▁dozen	-10.5964
▁Gein	-10.5964
▁contact	-10.5964
▁miscast	-10.5964
▁excessive	-10.5964
▁health	-10.5964
▁shoe	-10.5964
▁bash	-10.5965
▁satire	-10.5965
funniest	-10.5965
▁dropped	-10.5965
▁Yep	-10.5965
▁European	-10.5965
▁understood	-10.5965
▁scale	-10.5965
▁Comedy	-10.5965
▁Hitch	-10.5965
▁wake	-10.5965
▁dangerous	-10.5966
▁bucks	-10.5966
▁feet	-10.5967
▁size	-10.5967
▁finger	-10.5968
▁seven	-10.5968
▁Jean	-10.5968
▁chest	-10.5969
▁Bix	-10.5969
▁Himesh	-10.597
▁flies	-10.597
▁Vincent	-10.5971
▁dry	-10.5971
▁page	-10.5974
▁intellectual	-10.5974
▁Tony	-10.5975
▁appropriate	-10.5975
kip	-10.5975
▁vision	-10.5975
▁Ferr	-10.5976
▁prisoners	-10.5977
▁Lord	-10.5978
▁dubbed	-10.5978
▁comedic	-10.5978
▁heroine	-10.5981
▁Everyone	-10.5982
▁Otherwise	-10.5983
▁House	-10.5983
▁White	-10.5986
▁relationships	-10.5986
▁heroic	-10.5986
▁Friday	-10.5986
▁cream	-10.5986
▁Dog	-10.5989
▁critical	-10.599
▁repeatedly	-10.599
▁Poor	-10.5992
▁drivel	-10.5993
retty	-10.5993
▁annoyed	-10.5997
▁Pu	-10.6003
▁creatures	-10.6005
▁rough	-10.6005
▁farce	-10.6008
▁suffering	-10.601
▁Thing	-10.6014
▁anybody	-10.6015
▁Wow	-10.6019
▁affect	-10.602
▁/	-10.6021
▁Hunter	-10.6027
▁burning	-10.6031
▁cell	-10.6035
▁suits	-10.6036
93	-10.604
▁bin	-10.6045
▁pian	-10.6052
▁flee	-10.6053
▁Mark	-10.6054
▁curse	-10.6055
▁Frank	-10.6059
▁drinking	-10.607
▁agreed	-10.6071
▁val	-10.6075
▁park	-10.6075
▁makeup	-10.6088
▁delivered	-10.6096
▁Many	-10.6102
▁Far	-10.6106
▁cons	-10.6122
▁months	-10.6127
▁offered	-10.613
ene	-10.6138
▁ham	-10.6151
▁Par	-10.6166
▁continues	-10.6171
▁Sho	-10.6184
zing	-10.6188
rig	-10.619
iest	-10.6205
▁lower	-10.622
▁Com	-10.6244
▁pal	-10.6244
▁gas	-10.6257
inger	-10.6266
▁opera	-10.6275
▁4.	-10.628
2)	-10.6286
▁Ex	-10.6308
lf	-10.6328
▁ripp	-10.633
▁sw	-10.6343
▁ruins	-10.6344
cat	-10.6349
lle	-10.6353
SE	-10.6356
▁dim	-10.6368
q	-10.6381
gged	-10.6399
▁Ty	-10.6409
▁matters	-10.6417
▁Sea	-10.6441
▁flop	-10.6445
▁Pal	-10.6447
▁lur	-10.6455
▁Ted	-10.6455
▁rep	-10.6479
AL	-10.649
▁creat	-10.6533
Mad	-10.6557
hal	-10.6566
▁Rid	-10.6578
elve	-10.6586
▁Per	-10.6588
▁Liv	-10.6591
ana	-10.6594
late	-10.6597
pper	-10.6599
make	-10.6607
10	-10.6611
funny	-10.6619
place	-10.662
includ	-10.662
just	-10.662
mentioned	-10.6621
view	-10.6629
ium	-10.6633
▁teach	-10.6645
▁desire	-10.6646
▁hype	-10.6651
▁faith	-10.6652
▁sheer	-10.6661
cho	-10.6662
was	-10.6665
▁Vietnam	-10.6666
ux	-10.6671
▁flash	-10.6672
▁High	-10.6676
▁spit	-10.6677
keleton	-10.6677
▁kidnap	-10.6677
▁charisma	-10.6677
▁MOVIE	-10.6678
▁corrupt	-10.6678
▁enemies	-10.6678
▁equipment	-10.6678
▁favour	-10.6678
▁pseudo	-10.6678
▁silver	-10.6678
▁stomach	-10.6678
▁substance	-10.6678
itizen	-10.6678
▁Jessica	-10.6678
▁Spanish	-10.6678
▁VHS	-10.6678
▁advance	-10.6678
▁church	-10.6678
▁disjointed	-10.6678
▁execution	-10.6678
▁horrendous	-10.6678
▁horrific	-10.6678
▁menacing	-10.6678
▁subtitles	-10.6678
▁Blade	-10.6678
▁enemy	-10.6678
▁miserable	-10.6678
▁recover	-10.6678
▁excruciating	-10.6678
▁Trek	-10.6678
▁menace	-10.6678
▁snow	-10.6678
▁1980	-10.6678
▁convict	-10.6678
▁forgettable	-10.6678
▁tongue	-10.6678
▁wealth	-10.6678
▁multiple	-10.6678
▁environment	-10.6678
▁Dutch	-10.6678
▁cowboy	-10.6678
▁dinner	-10.6679
▁NOTHING	-10.6679
▁sword	-10.6679
▁price	-10.6679
▁section	-10.6679
▁lazy	-10.6679
▁degree	-10.6679
▁stunning	-10.6679
▁Coward	-10.6679
▁chang	-10.668
▁afore	-10.668
▁France	-10.668
▁naive	-10.668
▁sacrifice	-10.6681
▁meaningful	-10.6681
Truly	-10.6682
acting	-10.6682
▁#1	-10.6682
▁fade	-10.6684
▁Tarantino	-10.6685
▁Tarzan	-10.6685
▁Julia	-10.6685
▁tasteless	-10.6688
▁Island	-10.6689
▁Again	-10.6689
▁acceptable	-10.669
▁boob	-10.669
▁blockbuster	-10.6695
▁North	-10.6695
▁hopeless	-10.6697
▁possessed	-10.67
▁Sale	-10.6701
▁cow	-10.6701
▁Seriously	-10.6707
▁haunted	-10.6707
▁Which	-10.6707
▁express	-10.6709
ogan	-10.671
▁Myers	-10.6711
▁mass	-10.6712
▁bill	-10.6712
lar	-10.6713
▁occasionally	-10.6713
▁raised	-10.6717
▁properly	-10.6719
▁Sex	-10.672
▁Alien	-10.6721
▁char	-10.6721
▁pack	-10.6722
▁witch	-10.6725
1)	-10.6731
▁reasonable	-10.6736
▁investigate	-10.6736
▁weight	-10.6738
▁Germany	-10.6746
hin	-10.6747
▁semi	-10.675
▁/>*	-10.6754
ulp	-10.6758
▁23	-10.6766
▁Carl	-10.6767
▁proved	-10.6772
▁Had	-10.6774
▁z	-10.6775
losing	-10.6784
NG	-10.6789
▁amazingly	-10.6793
fire	-10.6796
▁recording	-10.6801
▁perfectly	-10.6804
▁struggl	-10.6809
▁breasts	-10.6812
cience	-10.6817
▁ro	-10.6819
▁meat	-10.6829
▁twisted	-10.6837
rash	-10.6843
▁Beth	-10.6848
name	-10.6853
▁pee	-10.6854
ken	-10.6855
ani	-10.6858
▁moved	-10.6861
▁dealing	-10.6883
▁fly	-10.6892
▁heist	-10.6893
bu	-10.6898
▁plant	-10.6918
▁hearing	-10.6923
teen	-10.693
characterization	-10.694
too	-10.6945
▁AT	-10.6947
Man	-10.6947
▁Add	-10.6957
movies	-10.6958
▁package	-10.6959
▁standing	-10.6959
ology	-10.6984
▁villains	-10.6993
rnie	-10.7008
▁translate	-10.701
▁Ram	-10.701
▁Pol	-10.7013
000	-10.706
▁Gl	-10.7069
rent	-10.707
▁thrill	-10.7075
ya	-10.7075
▁Ken	-10.7082
arian	-10.7088
▁$2	-10.7088
Le	-10.7088
val	-10.7119
00	-10.7122
▁Gu	-10.7145
hu	-10.7152
Ba	-10.7163
▁criminals	-10.7171
▁Give	-10.7176
▁reference	-10.7177
▁Hill	-10.7177
▁Hol	-10.7181
▁hole	-10.7183
cut	-10.7192
▁teenager	-10.7192
▁blows	-10.7194
▁ambi	-10.721
▁dreams	-10.7214
▁capabl	-10.7217
▁indicat	-10.7229
nder	-10.724
▁attempting	-10.7246
▁beer	-10.7248
90	-10.725
▁tear	-10.7262
wee	-10.727
▁forces	-10.7284
.......	-10.7292
▁Movies	-10.7301
▁Nor	-10.7306
▁entertain	-10.7343
▁porno	-10.7347
ease	-10.7353
▁president	-10.7357
▁Hey	-10.7365
UT	-10.7368
love	-10.7381
avi	-10.7382
▁Ron	-10.7384
Okay	-10.7388
▁market	-10.7388
Watch	-10.7391
11	-10.74
▁unintentional	-10.7413
▁constant	-10.7413
▁dislike	-10.742
▁report	-10.7423
loved	-10.7423
shot	-10.7428
▁tradition	-10.7438
▁broke	-10.744
▁Charl	-10.7441
▁chose	-10.7442
▁bare	-10.7443
▁Swed	-10.7444
▁Sim	-10.7444
VERY	-10.7445
▁subtle	-10.7446
▁yell	-10.7446
▁intent	-10.7447
▁photo	-10.7447
▁Japan	-10.7447
▁Church	-10.7447
▁Patterson	-10.7447
▁Travolta	-10.7447
▁behavior	-10.7447
▁community	-10.7447
▁credibility	-10.7447
▁description	-10.7447
▁dunno	-10.7447
▁engaging	-10.7447
▁nude	-10.7447
▁plague	-10.7447
▁restaurant	-10.7447
▁scenario	-10.7447
▁sleazy	-10.7447
▁superficial	-10.7447
▁supernatural	-10.7447
▁technology	-10.7447
▁Arbus	-10.7447
▁Gordon	-10.7447
▁built	-10.7447
▁financial	-10.7447
▁status	-10.7447
▁floor	-10.7447
▁glasses	-10.7447
▁cousin	-10.7447
▁contest	-10.7447
▁extent	-10.7448
▁monkey	-10.7448
▁portion	-10.7448
▁convey	-10.7448
▁excitement	-10.7448
▁lawyer	-10.7448
▁introduction	-10.7448
▁clown	-10.7448
▁challenge	-10.7448
▁speed	-10.7448
▁racial	-10.7448
▁Kurtz	-10.7448
▁chief	-10.7448
▁installment	-10.7448
▁trial	-10.7448
▁Sarah	-10.7449
▁epic	-10.7449
▁winning	-10.7449
▁neck	-10.7449
▁Music	-10.7449
▁held	-10.745
▁toilet	-10.745
▁Fu	-10.7451
▁render	-10.7451
▁Johnny	-10.7453
▁MTV	-10.7453
▁abandoned	-10.7453
▁prime	-10.7454
▁reward	-10.7454
▁Helen	-10.7454
▁tall	-10.7455
▁MAN	-10.7455
▁entry	-10.7455
▁Murray	-10.7455
▁meaningless	-10.7456
▁Carlos	-10.7456
▁executed	-10.7456
▁Sure	-10.7457
▁feminist	-10.7457
▁Lloyd	-10.7459
▁Three	-10.7459
▁Henry	-10.7459
▁WW	-10.746
▁distract	-10.746
▁performers	-10.746
▁Fish	-10.746
▁pun	-10.7462
▁humanity	-10.7462
▁exploitation	-10.7463
▁humorous	-10.7464
▁Oz	-10.7464
Christophe	-10.7465
▁superb	-10.7468
▁Laura	-10.7468
▁media	-10.7468
▁Awful	-10.7469
▁Would	-10.7471
▁Asian	-10.7473
▁programme	-10.7474
▁RE	-10.7476
induc	-10.7476
▁Read	-10.7477
▁Eric	-10.7479
▁movement	-10.7481
wise	-10.7481
▁shake	-10.7488
▁satisfying	-10.749
nia	-10.7494
▁Gore	-10.7496
▁ignored	-10.7497
▁string	-10.7497
ov	-10.7501
▁lying	-10.7504
▁burned	-10.7505
▁received	-10.7514
▁dam	-10.752
ments	-10.7525
▁lay	-10.7526
▁**	-10.753
▁castle	-10.7536
▁award	-10.7542
▁nail	-10.7548
▁Neil	-10.7564
▁tortured	-10.7564
▁Arm	-10.7564
▁twin	-10.7565
▁previews	-10.757
▁buff	-10.7574
▁sales	-10.7576
▁Roy	-10.7578
▁bath	-10.7581
ES	-10.7589
▁fatal	-10.7596
IE	-10.7597
▁ST	-10.7603
▁inane	-10.7625
ix	-10.7629
Donald	-10.763
▁cant	-10.7632
▁Scene	-10.7636
▁insulting	-10.7637
▁States	-10.7638
▁spoilers	-10.7643
pped	-10.7646
▁viewed	-10.765
▁throwing	-10.7656
▁wave	-10.7658
ich	-10.7659
▁factor	-10.7661
ifer	-10.7671
▁comp	-10.7671
▁Er	-10.7676
▁included	-10.7681
Sa	-10.7693
▁cliches	-10.7696
can	-10.7698
▁Make	-10.771
▁prom	-10.7734
UR	-10.7753
▁nut	-10.777
▁realise	-10.7774
▁handed	-10.7782
HO	-10.7788
▁mini	-10.7792
▁legs	-10.7798
▁Cu	-10.7815
▁theaters	-10.7816
▁killers	-10.7819
▁Boys	-10.7821
▁gri	-10.784
▁mum	-10.7841
ummy	-10.786
▁Have	-10.7863
▁idiots	-10.7867
▁kicks	-10.7868
ose	-10.7891
▁critic	-10.7898
▁unit	-10.7906
▁Stu	-10.7919
▁ear	-10.7952
▁depend	-10.7956
▁scares	-10.7971
▁boot	-10.8002
▁teens	-10.8006
▁flashback	-10.801
▁guard	-10.801
▁puppet	-10.801
▁Ice	-10.8012
▁weapon	-10.8012
▁term	-10.8017
TE	-10.8025
unk	-10.8028
itle	-10.8033
▁va	-10.8056
spect	-10.8068
▁rat	-10.8076
hose	-10.8093
ates	-10.8106
▁accidental	-10.8121
▁Th	-10.8122
lick	-10.8124
▁terror	-10.8126
CH	-10.8138
▁cars	-10.8153
hey	-10.8162
▁Fr	-10.8188
ups	-10.819
zo	-10.8197
▁REAL	-10.8199
maker	-10.8203
▁rooms	-10.821
ability	-10.8221
Dark	-10.8222
Robert	-10.8223
Michael	-10.8223
from	-10.8224
▁corn	-10.8224
room	-10.8227
Wow	-10.8228
town	-10.8228
▁wo	-10.8229
Ho	-10.8229
bound	-10.8231
story	-10.8235
▁witness	-10.8239
▁thank	-10.8242
▁produce	-10.8243
▁physical	-10.8244
▁surprises	-10.8246
▁peace	-10.8246
▁chat	-10.8249
▁confuse	-10.825
▁slight	-10.825
ility	-10.8252
jo	-10.8256
efore	-10.8258
▁trans	-10.8263
acted	-10.8266
hold	-10.8268
▁Master	-10.827
▁Africa	-10.8271
magine	-10.8274
▁adapt	-10.8275
▁Bur	-10.8276
▁mor	-10.8277
▁nation	-10.8279
▁text	-10.8281
▁radio	-10.8281
@	-10.8281
▁Carradine	-10.8281
▁Flynn	-10.8281
▁Gibson	-10.8281
▁appalling	-10.8281
▁neighbor	-10.8281
▁sleaze	-10.8281
▁theatrical	-10.8281
▁vomit	-10.8281
climactic	-10.8281
corporate	-10.8281
▁Austen	-10.8281
▁Cahill	-10.8281
▁Except	-10.8281
▁HUGE	-10.8281
▁Mexico	-10.8281
▁Shadow	-10.8281
▁Shakespeare	-10.8281
▁biblical	-10.8281
▁bottle	-10.8281
▁cluck	-10.8281
▁curiosity	-10.8281
▁marriage	-10.8281
▁motorcycle	-10.8281
▁narration	-10.8281
▁ninja	-10.8281
▁scratch	-10.8281
▁snakes	-10.8281
▁throat	-10.8281
▁tragic	-10.8281
▁unwatchable	-10.8281
▁Segal	-10.8281
▁Sonja	-10.8281
▁Troma	-10.8281
▁dreck	-10.8281
▁frightening	-10.8281
▁spark	-10.8281
▁Jason	-10.8281
▁drill	-10.8281
species	-10.8281
▁BBC	-10.8281
▁distance	-10.8281
▁Plus	-10.8281
▁Lambert	-10.8281
▁trait	-10.8281
▁blue	-10.8281
▁heavily	-10.8281
▁summer	-10.8281
▁border	-10.8281
▁quiet	-10.8281
▁sharp	-10.8281
▁wi	-10.8281
▁abrupt	-10.8281
▁practical	-10.8281
▁NEVER	-10.8281
▁slaughter	-10.8281
▁cardboard	-10.8281
▁contrast	-10.8281
▁private	-10.8281
▁Hopper	-10.8281
▁Philip	-10.8281
▁comedies	-10.8281
▁Tyler	-10.8281
▁Ireland	-10.8281
▁locate	-10.8282
▁chain	-10.8282
▁invisible	-10.8282
▁department	-10.8282
▁robot	-10.8282
▁wrapped	-10.8282
whilst	-10.8282
▁benefit	-10.8282
▁freedom	-10.8282
▁unoriginal	-10.8282
▁moron	-10.8283
▁Walker	-10.8283
▁closing	-10.8284
▁Lady	-10.8284
▁Norman	-10.8284
▁signs	-10.8284
▁marry	-10.8285
▁worthwhile	-10.8285
▁creation	-10.8285
▁editor	-10.8286
▁Doug	-10.8286
▁Linda	-10.8287
▁swear	-10.8287
▁flight	-10.8288
▁reject	-10.8288
▁Full	-10.8288
▁Chase	-10.8289
▁Matthew	-10.8289
▁significant	-10.8289
▁explode	-10.8289
▁friendship	-10.8289
▁float	-10.8289
▁invite	-10.8289
rmored	-10.8289
▁lab	-10.829
▁BAD	-10.829
▁muddled	-10.829
▁Lane	-10.8292
▁Heart	-10.8292
▁India	-10.8292
▁depiction	-10.8293
▁ignore	-10.8295
▁wannabe	-10.8296
▁Last	-10.8298
utter	-10.8299
▁absen	-10.8301
▁Such	-10.8302
▁Call	-10.8303
▁shape	-10.8305
▁MY	-10.8307
▁partner	-10.8308
rol	-10.8309
▁ancient	-10.8309
▁achieved	-10.831
▁erotic	-10.831
▁blend	-10.831
▁Someone	-10.8311
▁wire	-10.8314
▁Allen	-10.832
▁blonde	-10.832
▁suffered	-10.8324
▁Fan	-10.8328
▁reel	-10.8329
▁Force	-10.833
▁hence	-10.8331
▁nose	-10.8333
▁Cole	-10.8333
▁exposed	-10.8333
▁End	-10.8334
▁Sorry	-10.8339
▁spoiled	-10.8339
▁chill	-10.834
▁connected	-10.8343
▁mentally	-10.8346
▁Strange	-10.8348
▁accepted	-10.8355
▁gain	-10.8357
cil	-10.8359
▁examples	-10.8361
▁delivery	-10.8368
▁deserved	-10.8369
▁fooled	-10.8371
▁Need	-10.8372
▁stranger	-10.8377
emme	-10.8377
▁Oliv	-10.8398
▁$	-10.8399
▁shocked	-10.8408
▁stealing	-10.841
▁11	-10.8425
▁listening	-10.8426
▁raped	-10.8426
▁ONE	-10.8431
ident	-10.8433
▁ju	-10.8434
▁hanging	-10.8437
▁creators	-10.844
mber	-10.8441
▁gags	-10.8441
▁bang	-10.8446
▁growing	-10.8461
▁continual	-10.8461
▁cuts	-10.8467
▁padd	-10.8472
▁Nazis	-10.8489
▁0	-10.8507
By	-10.8512
▁passed	-10.8513
▁Character	-10.8515
cid	-10.8529
▁ears	-10.8535
▁cap	-10.8537
▁stunts	-10.8538
ching	-10.8542
▁guards	-10.8559
......	-10.856
rry	-10.8562
▁ME	-10.8568
BO	-10.8573
stan	-10.8582
yard	-10.8587
▁inspiration	-10.8605
▁nine	-10.8605
▁IS	-10.8606
▁press	-10.8613
▁San	-10.8627
▁$1	-10.8637
▁Ford	-10.8641
still	-10.8644
▁arrives	-10.8646
▁ring	-10.8647
▁wash	-10.8648
nel	-10.8652
▁maker	-10.8659
hould	-10.8671
cation	-10.8673
▁judg	-10.871
▁arms	-10.8713
atory	-10.8735
▁titles	-10.8744
▁claims	-10.8766
▁murders	-10.877
▁14	-10.877
▁tro	-10.8774
▁bat	-10.8784
▁suffer	-10.8808
key	-10.881
▁Dad	-10.8824
▁disc	-10.8829
OP	-10.8834
▁vs	-10.8836
▁Mor	-10.8852
▁jobs	-10.8852
▁Ap	-10.8873
▁disco	-10.8877
▁com	-10.888
▁Apart	-10.8881
knowledge	-10.8884
▁continue	-10.8902
▁Phillip	-10.8913
nny	-10.8915
▁tracks	-10.8917
▁tip	-10.892
▁stunt	-10.892
▁hir	-10.8927
▁Pac	-10.8934
ith	-10.894
▁resemble	-10.8957
col	-10.8959
▁Hoo	-10.8961
RO	-10.8962
▁helping	-10.8969
▁birds	-10.8969
try	-10.897
▁belong	-10.8981
ccording	-10.8983
▁Cop	-10.9004
ime	-10.9009
▁25	-10.9016
ILL	-10.9035
war	-10.9041
▁tea	-10.9041
▁severe	-10.9053
▁fac	-10.906
av	-10.9065
▁fulfill	-10.907
▁Val	-10.9073
ised	-10.9077
▁annoy	-10.9084
▁mud	-10.9089
▁types	-10.9093
▁originally	-10.9105
▁assassin	-10.9109
aught	-10.9114
▁cared	-10.9117
▁Sta	-10.9118
appy	-10.9126
▁arch	-10.9127
field	-10.9131
▁relat	-10.9131
Sorry	-10.9132
maybe	-10.9132
video	-10.9133
point	-10.9133
something	-10.9133
girl	-10.9134
why	-10.9137
abo	-10.914
book	-10.9142
▁tin	-10.9144
▁wind	-10.9147
▁doom	-10.915
cap	-10.9153
▁achieve	-10.9155
▁unfortunate	-10.9155
▁Final	-10.9156
▁easi	-10.9157
▁tune	-10.9157
▁occasional	-10.9161
formed	-10.9163
Here	-10.9164
▁efforts	-10.9171
▁voices	-10.9171
▁lone	-10.9173
ending	-10.9174
ened	-10.9175
▁threat	-10.9176
▁origin	-10.9181
faced	-10.9181
▁Ju	-10.9183
▁unbelievab	-10.9185
▁stone	-10.9186
▁confront	-10.9188
▁rebel	-10.9189
▁Life	-10.9189
▁Barbara	-10.919
▁Capote	-10.919
▁Dragon	-10.919
▁confirm	-10.919
▁reflect	-10.919
▁rifle	-10.919
▁tunnel	-10.919
immigrant	-10.919
▁California	-10.919
▁Carpenter	-10.919
▁Crawford	-10.919
▁Festival	-10.919
▁Jamie	-10.919
▁Killjoy	-10.919
▁Kubrick	-10.919
▁Massacre	-10.919
▁Video	-10.919
▁accus	-10.919
▁bargain	-10.919
▁chapter	-10.919
▁circumstances	-10.919
▁conceived	-10.919
▁convoluted	-10.919
▁derivative	-10.919
▁disgrace	-10.919
▁guarantee	-10.919
▁increasing	-10.919
▁politics	-10.919
▁principle	-10.919
▁recycl	-10.919
▁technique	-10.919
▁ticket	-10.919
▁Monster	-10.919
▁Nelson	-10.919
▁chassidi	-10.919
▁inject	-10.919
▁sheriff	-10.919
▁Dillon	-10.919
▁Harvest	-10.919
▁Year	-10.919
▁announce	-10.919
▁asteroid	-10.919
▁eager	-10.919
▁interior	-10.919
▁prior	-10.919
Brazil	-10.919
▁Carrie	-10.919
▁false	-10.919
▁homosexual	-10.919
▁broadcast	-10.919
▁gift	-10.919
▁Salman	-10.919
▁controversial	-10.919
Graduat	-10.919
▁descent	-10.919
▁Jesus	-10.919
▁banned	-10.919
▁link	-10.919
▁inserted	-10.919
▁intense	-10.919
▁basis	-10.919
▁burst	-10.919
▁Channel	-10.919
▁disguise	-10.919
▁category	-10.919
▁blur	-10.919
▁transfer	-10.919
▁SciFi	-10.919
▁exchange	-10.9191
▁Beast	-10.9191
▁stumble	-10.9191
▁Israel	-10.9191
▁blink	-10.9191
▁outrageous	-10.9191
▁kidnapper	-10.9191
▁interaction	-10.9191
▁trade	-10.9191
▁incest	-10.9192
▁food	-10.9192
▁Edgar	-10.9192
▁Lucy	-10.9192
▁foul	-10.9192
▁ironic	-10.9192
▁laser	-10.9193
▁coast	-10.9193
▁label	-10.9193
▁lackluster	-10.9193
▁proud	-10.9193
▁rush	-10.9193
lbei	-10.9194
▁Princess	-10.9194
▁combine	-10.9194
▁woods	-10.9194
▁Father	-10.9194
▁3000	-10.9194
▁nerd	-10.9194
▁slick	-10.9194
▁Knight	-10.9194
▁cancel	-10.9195
▁overlook	-10.9195
▁boredom	-10.9195
▁Eddie	-10.9195
▁vanish	-10.9196
▁attend	-10.9196
▁Cuba	-10.9196
▁ego	-10.9196
▁elsewhere	-10.9196
▁punk	-10.9196
▁investigation	-10.9196
storm	-10.9197
▁wig	-10.9197
▁everywhere	-10.9198
▁Clark	-10.9199
▁geek	-10.9199
▁1940	-10.92
▁Cool	-10.9201
imi	-10.9201
▁moon	-10.9202
▁Miller	-10.9202
▁rack	-10.9203
▁Marion	-10.9204
▁Pro	-10.9204
▁patient	-10.9204
▁Ocean	-10.9204
▁Story	-10.9204
▁spoke	-10.9205
▁Almost	-10.9205
asper	-10.9205
▁disturbed	-10.9205
▁debut	-10.9206
▁brat	-10.9206
▁shelf	-10.9207
▁useful	-10.9208
▁Alan	-10.9209
▁outstanding	-10.9209
▁blown	-10.921
fun	-10.921
▁mild	-10.921
▁Camp	-10.921
▁shirt	-10.921
▁Something	-10.921
▁Chuck	-10.9211
▁Baby	-10.9212
▁Sub	-10.9212
▁shouting	-10.9217
▁warn	-10.9217
▁Lots	-10.9218
▁established	-10.9218
▁Plan	-10.9221
▁Over	-10.9221
▁latest	-10.9222
▁Right	-10.9222
▁repeated	-10.9223
▁Young	-10.9224
▁quit	-10.9224
▁Basically	-10.9227
▁removed	-10.9227
▁Beyond	-10.923
▁Stooges	-10.9231
▁sand	-10.9231
▁Obviously	-10.9233
▁Probably	-10.9233
▁deaths	-10.9234
▁corner	-10.9235
▁Louis	-10.9235
NCE	-10.9236
▁Boring	-10.9237
▁apartment	-10.9238
▁Evil	-10.9239
▁witnessed	-10.924
▁threatening	-10.9241
▁icon	-10.9242
▁noise	-10.9244
▁entertained	-10.9245
yr	-10.9246
▁wrestler	-10.925
▁Land	-10.9251
▁fla	-10.9253
▁yard	-10.9253
▁Spacey	-10.9255
pical	-10.9256
▁Okay	-10.9262
▁vari	-10.9265
▁Sch	-10.9269
▁flawed	-10.9269
▁chopp	-10.927
▁West	-10.9271
▁endure	-10.9272
▁naturally	-10.9274
▁consum	-10.9275
▁loosely	-10.9277
!!!"	-10.9277
▁Top	-10.9278
▁spy	-10.928
comprehensible	-10.9281
▁drawing	-10.9283
▁sucker	-10.9284
trust	-10.9284
▁candy	-10.9298
▁Gues	-10.9302
▁primar	-10.9302
▁errors	-10.9311
0,000	-10.9313
▁row	-10.9325
▁Art	-10.9336
▁boil	-10.9344
dle	-10.9347
▁Ark	-10.9348
)...	-10.9351
▁Dur	-10.9366
▁despise	-10.9368
▁Rob	-10.9371
▁importantly	-10.9381
▁Rose	-10.9382
▁clips	-10.9392
▁sha	-10.9394
▁sock	-10.9398
ellar	-10.9398
▁min	-10.9412
actors	-10.9444
▁logical	-10.9445
▁ador	-10.9451
elli	-10.9451
▁helps	-10.9453
▁winds	-10.9472
▁belongs	-10.9473
▁opened	-10.9475
going	-10.9476
OM	-10.9479
▁Yu	-10.9482
▁enthusiast	-10.9497
rch	-10.9501
▁myth	-10.9501
▁Ten	-10.9502
▁ape	-10.9513
cer	-10.9519
▁bust	-10.9524
▁196	-10.9529
gli	-10.9539
▁LA	-10.9569
▁killings	-10.9583
▁conversations	-10.9583
▁colors	-10.9584
▁forgive	-10.9607
▁Twi	-10.961
▁expressions	-10.9612
Rating	-10.9612
▁mal	-10.9617
▁bu	-10.9628
▁Gus	-10.9628
▁rocket	-10.9646
▁Fi	-10.9655
▁doll	-10.9672
▁provid	-10.9675
ature	-10.9677
▁BE	-10.9689
▁gate	-10.9695
bbing	-10.9703
Of	-10.9706
gue	-10.9735
anger	-10.9735
▁bus	-10.9738
▁specific	-10.974
▁exceptional	-10.9752
resumably	-10.9753
▁hu	-10.9766
▁80'	-10.9768
▁adding	-10.9777
▁Die	-10.9782
▁Pi	-10.9792
rough	-10.9795
▁fed	-10.9833
▁returns	-10.9838
▁caring	-10.9846
▁Bel	-10.986
▁topic	-10.9906
ould	-10.9909
▁dollar	-10.9922
▁Bri	-10.9923
ella	-10.993
▁Christ	-10.9941
▁sides	-10.9943
▁Ki	-10.996
▁doctors	-10.9978
▁fare	-10.9981
ique	-10.9992
▁slip	-10.9997
▁Lil	-10.9998
▁seduce	-11.0012
hed	-11.0013
▁millions	-11.0036
▁grab	-11.0045
▁woo	-11.0045
such	-11.0053
▁promo	-11.0054
round	-11.0083
▁chas	-11.0095
▁portrays	-11.0099
▁Julie	-11.0109
▁South	-11.0124
▁study	-11.0125
30	-11.0127
Alien	-11.0131
dress	-11.0132
dramatic	-11.0132
free	-11.0133
Star	-11.0133
motion	-11.0133
class	-11.0135
demon	-11.0135
Look	-11.0135
awful	-11.0137
through	-11.0137
sexual	-11.0137
▁investigat	-11.0138
put	-11.0139
Kill	-11.014
▁rule	-11.0142
Mis	-11.0149
pack	-11.0149
www	-11.0152
▁surf	-11.0152
produc	-11.0152
▁trail	-11.0155
▁states	-11.0158
itch	-11.0158
ified	-11.0158
▁misse	-11.0162
unless	-11.0163
▁unc	-11.0173
▁wr	-11.0174
▁invest	-11.0175
▁dig	-11.0176
▁progress	-11.0179
▁gym	-11.0184
▁collect	-11.0184
▁psychologi	-11.0185
▁confess	-11.0186
▁famili	-11.0187
assic	-11.0188
Spoiler	-11.0188
peaking	-11.0188
Bad	-11.0189
▁multi	-11.019
▁Absolute	-11.019
▁Adonijah	-11.019
▁Brynner	-11.019
▁Clooney	-11.019
▁Holocaust	-11.019
▁Incident	-11.019
▁Keaton	-11.019
▁Nightbeast	-11.019
▁Pistols	-11.019
▁Sidney	-11.019
▁Stewart	-11.019
▁Vegas	-11.019
▁WATCH	-11.019
▁accompanie	-11.019
▁baffl	-11.019
▁blatant	-11.019
▁combination	-11.019
▁complicated	-11.019
▁context	-11.019
▁convenient	-11.019
▁courage	-11.019
▁descend	-11.019
▁elephant	-11.019
▁festival	-11.019
▁gimmick	-11.019
▁glimpse	-11.019
▁incompetent	-11.019
▁jarring	-11.019
▁knife	-11.019
▁landscape	-11.019
▁magazine	-11.019
▁memories	-11.019
▁minimum	-11.019
▁necessarily	-11.019
▁nonsensical	-11.019
▁obscure	-11.019
▁profanity	-11.019
▁psychopath	-11.019
▁purchase	-11.019
▁railroad	-11.019
▁reputation	-11.019
▁respond	-11.019
▁schlock	-11.019
▁shrink	-11.019
▁simplistic	-11.019
▁striking	-11.019
▁undoubt	-11.019
▁worried	-11.019
PLEASE	-11.019
▁AIDS	-11.019
▁casual	-11.019
▁elderly	-11.019
▁pleasant	-11.019
▁segment	-11.019
▁suspicious	-11.019
▁tacky	-11.019
▁unfold	-11.019
▁welcome	-11.019
▁Hammer	-11.019
▁montage	-11.019
▁stranded	-11.019
▁unexpected	-11.019
▁zoom	-11.019
▁Derek	-11.019
▁crawl	-11.019
▁Sleep	-11.019
▁method	-11.019
▁ordinary	-11.019
▁warrior	-11.019
▁inhabit	-11.019
▁pause	-11.019
▁tactic	-11.019
▁churn	-11.019
▁launch	-11.019
▁WAS	-11.019
▁nowadays	-11.019
▁abomination	-11.019
▁Rome	-11.019
▁offense	-11.019
▁Play	-11.019
▁blank	-11.019
▁Clay	-11.019
▁Kelly	-11.019
▁disconnect	-11.019
▁evident	-11.019
▁Stock	-11.019
▁devote	-11.019
▁Bridge	-11.019
▁engage	-11.019
ELL	-11.019
▁mugg	-11.019
▁Quaid	-11.019
▁security	-11.019
▁kiss	-11.019
▁contemporary	-11.019
▁profit	-11.019
▁dubbing	-11.019
▁transport	-11.019
▁retire	-11.019
▁Thorpe	-11.019
▁thief	-11.019
▁kidnapped	-11.019
▁symbolism	-11.0191
▁cheer	-11.0191
▁Raimi	-11.0191
▁Antoni	-11.0191
▁sidekick	-11.0191
▁Irish	-11.0191
▁identity	-11.0191
▁cannibal	-11.0191
▁dragged	-11.0191
▁proceedings	-11.0191
▁trite	-11.0191
▁Talk	-11.0191
▁Pitt	-11.0191
▁measure	-11.0191
▁punish	-11.0191
▁competent	-11.0191
▁bumbl	-11.0191
▁inventive	-11.0191
▁nauseating	-11.0192
▁Marlow	-11.0192
▁loving	-11.0192
▁combat	-11.0192
▁Almighty	-11.0192
▁route	-11.0192
▁Bobby	-11.0192
▁wrap	-11.0192
▁pitch	-11.0192
▁skeleton	-11.0192
▁China	-11.0192
▁subtlety	-11.0192
▁Uwe	-11.0192
▁alter	-11.0193
▁Perch	-11.0193
▁unknown	-11.0193
▁spill	-11.0193
▁1/10	-11.0193
▁universe	-11.0193
▁Biblical	-11.0193
▁obnoxious	-11.0193
▁psychiatri	-11.0193
ssembl	-11.0194
▁hostage	-11.0194
▁Santa	-11.0194
▁captiv	-11.0194
▁achievement	-11.0194
▁Duke	-11.0194
▁Morgan	-11.0195
▁thug	-11.0195
▁moronic	-11.0195
▁antics	-11.0195
▁neat	-11.0195
mination	-11.0196
▁pants	-11.0196
▁Down	-11.0196
▁Snow	-11.0196
▁handsome	-11.0197
▁coffe	-11.0197
stein	-11.0197
▁laid	-11.0197
▁betrayal	-11.0197
▁cookie	-11.0197
▁possibility	-11.0197
▁Lena	-11.0197
▁Colin	-11.0198
▁pool	-11.0198
▁define	-11.0198
▁16	-11.0199
▁starred	-11.0199
▁17	-11.0199
▁Apparently	-11.02
▁Mencia	-11.02
▁Stephen	-11.02
▁Horrible	-11.02
▁tolerate	-11.02
▁fancy	-11.02
▁raw	-11.02
▁national	-11.02
▁Carol	-11.02
▁Sheba	-11.0201
inter	-11.0201
▁wedding	-11.0201
▁Mason	-11.0201
▁Crow	-11.0202
▁Super	-11.0202
▁Swan	-11.0203
▁transform	-11.0203
ENT	-11.0203
▁bones	-11.0204
▁enjoyment	-11.0204
▁Wait	-11.0206
?!?!	-11.0207
▁fictional	-11.0208
▁Death	-11.0208
glass	-11.021
dding	-11.0211
▁Frost	-11.0212
▁worn	-11.0212
▁Family	-11.0212
▁Ghost	-11.0212
▁Plot	-11.0212
▁Jeff	-11.0213
Dr	-11.0214
▁Pick	-11.0214
▁instantly	-11.0215
▁Ross	-11.0215
▁200	-11.0217
▁buddy	-11.0218
▁Seven	-11.0218
▁craft	-11.0219
▁coke	-11.0219
▁21	-11.0219
▁photographer	-11.022
▁shaking	-11.0221
▁qua	-11.0221
anche	-11.0223
▁Meanwhile	-11.0225
into	-11.0226
▁faithful	-11.0228
omi	-11.023
▁dire	-11.0233
▁expose	-11.0234
▁bitter	-11.0235
▁quirky	-11.0236
▁scripts	-11.0238
▁commander	-11.024
98	-11.0251
eason	-11.0257
▁Billy	-11.0262
▁continued	-11.0268
▁Dove	-11.0279
▁spr	-11.028
coming	-11.0281
▁bump	-11.0282
▁kicked	-11.0283
▁oil	-11.0283
▁emerg	-11.0285
▁survived	-11.0292
▁slap	-11.03
tiny	-11.03
ooney	-11.0302
mons	-11.0302
▁crashing	-11.0307
▁escapes	-11.031
REALLY	-11.0311
▁pointed	-11.0315
▁related	-11.0316
▁dated	-11.0327
▁visually	-11.0328
▁sexually	-11.0333
Tom	-11.0344
▁fate	-11.0359
▁props	-11.0366
▁rant	-11.0371
itz	-11.038
▁sports	-11.0384
LA	-11.0385
▁OR	-11.0387
▁carrying	-11.0395
(..	-11.0397
▁Fl	-11.0418
▁Ven	-11.0429
▁appealing	-11.0429
▁listed	-11.0429
▁explosions	-11.0444
▁motives	-11.0444
FI	-11.0448
vid	-11.0462
▁dealers	-11.0463
▁rules	-11.0471
Shame	-11.0474
▁kinda	-11.0488
▁Phillips	-11.0505
▁resembles	-11.0505
▁sal	-11.0509
▁scarie	-11.0512
actor	-11.052
▁explaining	-11.0527
Hav	-11.0536
▁commenting	-11.0544
US	-11.0545
▁Pam	-11.0556
▁Han	-11.0556
bag	-11.0561
▁tears	-11.0565
▁Hills	-11.0566
▁plann	-11.0567
▁thrills	-11.057
GE	-11.0593
▁crimes	-11.0601
▁brave	-11.0611
▁beating	-11.0621
▁projects	-11.0632
▁(?)	-11.0634
▁99	-11.0669
▁faced	-11.0676
▁Christin	-11.0693
▁levels	-11.0693
▁powers	-11.0695
▁Clo	-11.0705
▁Sel	-11.0709
▁subplots	-11.0721
▁protagonists	-11.0725
lib	-11.0727
▁Var	-11.0739
▁str	-11.0748
▁forty	-11.0751
tec	-11.0759
▁fur	-11.0784
▁194	-11.0784
cutter	-11.0786
unning	-11.079
▁SO	-11.0826
▁hal	-11.0827
▁dud	-11.0849
▁5-	-11.0852
▁cra	-11.088
▁ninet	-11.0883
8)	-11.0893
▁gangsters	-11.091
ji	-11.0916
▁Mars	-11.0927
worker	-11.0929
▁namely	-11.0955
sci	-11.0958
▁aid	-11.0979
▁continu	-11.0984
▁lovers	-11.0995
▁walls	-11.0996
▁stereotype	-11.0998
▁Ring	-11.102
▁explosion	-11.1024
▁motive	-11.1024
▁month	-11.1032
▁State	-11.1033
▁GI	-11.1034
▁choices	-11.1037
ini	-11.1038
▁parent	-11.1042
▁Nazi	-11.1044
****	-11.1044
▁skill	-11.1052
▁spoiler	-11.1068
▁Days	-11.107
▁Mill	-11.1082
▁UN	-11.1082
RK	-11.1083
▁dealer	-11.1095
▁cliche	-11.1097
▁destin	-11.1098
ounce	-11.1101
hearted	-11.1148
only	-11.1156
▁disappoint	-11.1195
▁edit	-11.1196
▁193	-11.1198
standing	-11.1216
▁Anne	-11.1218
piece	-11.122
evil	-11.1223
▁Gal	-11.1225
▁escap	-11.1226
ization	-11.1233
SPOILER	-11.1234
evel	-11.1234
Chris	-11.1238
▁satisfy	-11.1239
written	-11.124
Finally	-11.1241
Evil	-11.1241
witch	-11.1241
claim	-11.1242
plain	-11.1242
Yeah	-11.1242
Please	-11.1243
phone	-11.1243
▁Ash	-11.1243
Like	-11.1243
▁si	-11.1244
worst	-11.1244
minute	-11.1245
Very	-11.1246
scary	-11.1246
Joe	-11.1249
Night	-11.1251
Matt	-11.1252
▁invent	-11.1252
porn	-11.1254
▁threaten	-11.1255
think	-11.1256
▁mate	-11.1257
▁Grant	-11.1257
▁haunt	-11.1259
series	-11.1261
▁initial	-11.1264
▁mistakes	-11.1266
▁definite	-11.1266
hero	-11.1273
kill	-11.1275
▁convention	-11.1275
▁generat	-11.1276
▁guilt	-11.1278
▁robber	-11.1278
▁suspens	-11.1281
▁Luci	-11.1284
▁occasion	-11.1291
▁Ever	-11.1294
▁Whe	-11.1295
▁pursu	-11.1297
▁trauma	-11.13
▁oppos	-11.13
THING	-11.1301
▁Brad	-11.1301
▁Garcia	-11.1301
▁Picture	-11.1301
▁guitar	-11.1301
▁insipid	-11.1301
▁plausible	-11.1301
▁reminiscen	-11.1301
▁resurrect	-11.1301
▁swallow	-11.1301
Factotum	-11.1301
]	-11.1301
explosive	-11.1301
werewolf	-11.1301
▁Arabia	-11.1301
▁Bergman	-11.1301
▁Bronson	-11.1301
▁Bukowski	-11.1301
▁COBRA	-11.1301
▁Canada	-11.1301
▁Central	-11.1301
▁Dahmer	-11.1301
▁Egypt	-11.1301
▁Especially	-11.1301
▁Eventually	-11.1301
▁Fulci	-11.1301
▁Greek	-11.1301
▁Hoffman	-11.1301
▁Internet	-11.1301
▁Monogram	-11.1301
▁SEAL	-11.1301
▁Sarkar	-11.1301
▁Virgi	-11.1301
▁Wilkinson	-11.1301
▁Zombie	-11.1301
▁alternate	-11.1301
▁alternative	-11.1301
▁artificial	-11.1301
▁caricature	-11.1301
▁cliff	-11.1301
▁clunky	-11.1301
▁conspirac	-11.1301
▁distinguish	-11.1301
▁distributor	-11.1301
▁encourage	-11.1301
▁enormous	-11.1301
▁evoke	-11.1301
▁examine	-11.1301
▁explicit	-11.1301
▁frozen	-11.1301
▁holiday	-11.1301
▁homage	-11.1301
▁illogical	-11.1301
▁importance	-11.1301
▁infamous	-11.1301
▁interpretation	-11.1301
▁intrigue	-11.1301
▁journey	-11.1301
▁mainstream	-11.1301
▁misguided	-11.1301
▁mundane	-11.1301
▁premiere	-11.1301
▁prince	-11.1301
▁principal	-11.1301
▁puke	-11.1301
▁scheme	-11.1301
▁skull	-11.1301
▁smell	-11.1301
▁stilted	-11.1301
▁suspend	-11.1301
▁unappealing	-11.1301
▁veteran	-11.1301
▁wardrobe	-11.1301
Interesting	-11.1301
▁CNN	-11.1301
▁Chinaski	-11.1301
▁Freeman	-11.1301
▁Gothic	-11.1301
▁Russell	-11.1301
▁awake	-11.1301
▁coffin	-11.1301
▁credible	-11.1301
▁cultural	-11.1301
▁firefighter	-11.1301
▁french	-11.1301
▁garden	-11.1301
▁trivia	-11.1301
▁Firth	-11.1301
▁Jake	-11.1301
▁Kidman	-11.1301
▁danton	-11.1301
▁DAYS	-11.1301
▁Khan	-11.1301
▁Mateo	-11.1301
▁resort	-11.1301
▁swim	-11.1301
▁Martha	-11.1301
▁contestants	-11.1301
▁internet	-11.1301
▁minimal	-11.1301
▁Caine	-11.1301
▁Greg	-11.1301
▁riot	-11.1301
▁strict	-11.1301
▁Batman	-11.1301
▁shodd	-11.1301
▁sickening	-11.1301
▁Altman	-11.1301
▁Carrey	-11.1301
Number	-11.1301
Canadian	-11.1301
▁Foot	-11.1301
▁spell	-11.1301
spiring	-11.1301
▁Believe	-11.1301
▁structure	-11.1301
-13	-11.1301
▁worry	-11.1301
▁Water	-11.1301
▁dinosaur	-11.1301
▁bathroom	-11.1301
▁Garfield	-11.1301
▁Old	-11.1301
▁showcase	-11.1301
ACK	-11.1301
▁Kirk	-11.1301
Silence	-11.1301
Third	-11.1302
▁1990	-11.1302
Major	-11.1302
▁Grey	-11.1302
▁Redford	-11.1302
▁WORS	-11.1302
▁Zeta	-11.1302
▁chew	-11.1302
▁banal	-11.1302
▁trend	-11.1302
▁resist	-11.1302
▁Hackman	-11.1302
▁unrelated	-11.1302
▁inexplicabl	-11.1302
▁hungry	-11.1302
▁$4	-11.1302
▁urge	-11.1302
▁hood	-11.1302
▁parade	-11.1302
▁thread	-11.1303
▁spread	-11.1303
▁criticism	-11.1303
▁Harold	-11.1303
▁Micke	-11.1303
▁eighties	-11.1303
▁argument	-11.1303
▁misery	-11.1303
▁underwater	-11.1303
▁Romero	-11.1303
▁Know	-11.1303
▁Price	-11.1303
▁nonexistent	-11.1304
▁bride	-11.1304
▁basement	-11.1304
▁Carey	-11.1304
▁address	-11.1304
ssuming	-11.1304
▁McCo	-11.1304
▁audio	-11.1304
▁slightest	-11.1304
▁objective	-11.1305
▁mansion	-11.1305
▁Sebastian	-11.1305
▁Leach	-11.1305
▁committed	-11.1306
▁Scream	-11.1306
▁gem	-11.1306
▁Home	-11.1306
▁Jill	-11.1307
▁liberal	-11.1307
▁jaw	-11.1307
▁frustrated	-11.1307
ville	-11.1307
▁possession	-11.1307
▁Town	-11.1307
▁vast	-11.1308
▁Zone	-11.1308
annon	-11.1308
▁lake	-11.1308
▁suspenseful	-11.1308
▁carefully	-11.1308
▁defend	-11.1309
▁tame	-11.1309
▁Beach	-11.1309
▁2/10	-11.1309
▁FOR	-11.131
▁rubb	-11.131
▁await	-11.131
▁ultra	-11.1311
▁unlikeable	-11.1311
▁preacher	-11.1312
▁HAPP	-11.1312
▁Lawrence	-11.1312
▁tolerable	-11.1312
▁drunken	-11.1312
pm	-11.1313
▁hill	-11.1313
▁Hour	-11.1314
▁Gay	-11.1314
ARD	-11.1314
▁arrested	-11.1315
▁shameless	-11.1315
▁EVER	-11.1317
▁Saw	-11.1317
▁goof	-11.1318
▁UP	-11.1318
▁scarecrow	-11.1319
▁split	-11.1319
▁Sometimes	-11.1319
▁inspired	-11.1319
▁copies	-11.1319
▁uneven	-11.1319
▁Iraqi	-11.132
▁Australian	-11.1321
▁wheel	-11.1321
UD	-11.1322
Wor	-11.1322
indulgent	-11.1324
▁directorial	-11.1324
▁robbery	-11.1325
IGHT	-11.1325
▁Whatever	-11.1326
▁Angeles	-11.1326
▁Dick	-11.1326
▁Battle	-11.1326
▁brand	-11.1326
▁Think	-11.1327
▁Scar	-11.1327
▁handle	-11.1327
▁Kind	-11.1328
▁Nation	-11.1329
▁partial	-11.133
glorious	-11.133
▁fourth	-11.1331
▁Diana	-11.1331
▁Stay	-11.1332
▁racist	-11.1332
▁inappropriate	-11.1334
now	-11.1336
▁retarded	-11.1337
▁/>1.	-11.1338
▁clone	-11.1339
▁huh	-11.1339
▁dresses	-11.1341
▁topless	-11.1341
▁Acting	-11.1344
▁finest	-11.1344
▁Head	-11.1345
▁realism	-11.1347
▁Dave	-11.135
▁Jan	-11.1351
▁lucky	-11.1354
▁wow	-11.1354
▁SPOILER	-11.1355
▁pirate	-11.1359
▁Hall	-11.1362
▁introduce	-11.1367
inal	-11.1368
▁balance	-11.1372
impos	-11.1372
person	-11.1374
▁Col	-11.1375
▁Ator	-11.1382
▁Marsh	-11.139
▁Morn	-11.1393
▁Juliet	-11.1393
▁marketing	-11.1395
▁historically	-11.1397
▁ranch	-11.1397
▁thrilling	-11.1398
▁armed	-11.14
▁flavo	-11.1401
▁tripe	-11.1403
▁Finally	-11.1407
▁bible	-11.1408
▁greatness	-11.1415
LOW	-11.1416
▁repeating	-11.1418
▁manager	-11.142
▁rolled	-11.142
▁Lion	-11.1423
▁fu	-11.1428
▁lifeless	-11.1429
▁Hero	-11.1433
▁block	-11.1433
▁dimensional	-11.1434
▁Nim	-11.1446
▁bullets	-11.1452
▁Wha	-11.1459
▁guts	-11.1473
▁dub	-11.1474
ulous	-11.1476
▁Your	-11.1477
▁Nav	-11.1485
▁lips	-11.1486
▁bound	-11.15
▁charming	-11.1502
▁finale	-11.1506
▁contribut	-11.1513
▁Hot	-11.1514
▁hunter	-11.1515
▁Simpsons	-11.1519
cast	-11.1528
▁noir	-11.153
▁vers	-11.1534
▁legal	-11.1534
▁Air	-11.154
nal	-11.1542
▁seeking	-11.1549
▁concentrate	-11.155
▁proceeds	-11.1553
▁rot	-11.1559
▁fianc	-11.1568
▁dust	-11.1573
ril	-11.1582
▁experienced	-11.1583
▁HO	-11.1589
Di	-11.159
oid	-11.16
▁recit	-11.1608
mmed	-11.1618
▁topics	-11.1623
▁hall	-11.1626
mail	-11.1628
▁Jud	-11.1629
▁Rap	-11.1647
ARE	-11.1649
OWN	-11.1656
iva	-11.1659
▁magical	-11.167
immer	-11.1674
▁sel	-11.1674
▁Ya	-11.1675
▁jumping	-11.1693
▁admir	-11.17
▁awards	-11.1725
rac	-11.1729
▁popp	-11.173
Mak	-11.1733
mato	-11.1757
tograph	-11.1764
gun	-11.1767
▁arc	-11.1777
wan	-11.1784
▁cameos	-11.1809
▁passe	-11.1817
vic	-11.1838
▁judges	-11.1851
ien	-11.1863
▁nicely	-11.1873
▁tool	-11.188
▁shi	-11.1904
▁spots	-11.1927
last	-11.193
wai	-11.1932
cue	-11.1946
▁fighter	-11.1953
ocketship	-11.1955
olice	-11.1977
▁ev	-11.1997
take	-11.1997
▁insist	-11.2004
▁king	-11.2007
▁Patric	-11.2014
▁Bell	-11.2019
lip	-11.2038
▁Base	-11.2038
King	-11.2059
minded	-11.2067
▁pat	-11.2104
uster	-11.211
▁admire	-11.2116
IG	-11.2136
cher	-11.2138
shes	-11.2151
▁comfortabl	-11.218
▁Kim	-11.2185
ika	-11.2199
father	-11.2225
▁surreal	-11.2228
▁temp	-11.223
▁Ce	-11.2233
▁Nati	-11.2263
▁proceed	-11.2271
Step	-11.2274
▁clip	-11.2278
ouch	-11.2309
▁swa	-11.2322
lude	-11.2324
ago	-11.2327
▁Mag	-11.2352
▁employ	-11.2355
▁receiv	-11.2376
uge	-11.2407
struct	-11.241
etti	-11.2428
OUR	-11.2432
▁Ku	-11.2447
!!!!!!	-11.2458
▁squa	-11.2461
▁rever	-11.2467
lend	-11.2474
world	-11.2479
Hi	-11.2489
water	-11.2491
Obviously	-11.2491
Probably	-11.2491
soldier	-11.2492
Second	-11.2492
quit	-11.2492
spot	-11.2492
Movie	-11.2493
Blood	-11.2493
Love	-11.2493
intelligent	-11.2493
George	-11.2493
Jones	-11.2493
strong	-11.2493
black	-11.2494
wife	-11.2494
weight	-11.2494
Director	-11.2497
happy	-11.2497
Back	-11.2502
Who	-11.2504
found	-11.2506
▁limit	-11.2506
Still	-11.2507
▁pad	-11.2508
wolves	-11.2523
▁tire	-11.2524
▁greed	-11.2527
▁opportunit	-11.2528
▁remove	-11.2529
udge	-11.254
▁insight	-11.254
▁sentiment	-11.2542
▁dimension	-11.2543
▁betray	-11.2543
▁stole	-11.2543
ternational	-11.2544
▁Pare	-11.2545
▁quest	-11.2547
new	-11.2548
▁Jordan	-11.2549
▁victor	-11.255
apocalyp	-11.255
evolution	-11.255
▁illustrat	-11.2551
Dudikoff	-11.2551
WARNING	-11.2551
▁Afghanistan	-11.2551
▁England	-11.2551
▁Exorcis	-11.2551
▁Floyd	-11.2551
▁RGV	-11.2551
▁Savannah	-11.2551
▁Storm	-11.2551
▁Triangle	-11.2551
▁caliber	-11.2551
▁communication	-11.2551
▁condition	-11.2551
▁devastat	-11.2551
▁jewel	-11.2551
▁population	-11.2551
▁unpleasant	-11.2551
▁unsatisfying	-11.2551
traffic	-11.2551
▁1/2	-11.2551
▁Bollywood	-11.2551
▁Century	-11.2551
▁Clampett	-11.2551
▁Elizabeth	-11.2551
▁Everybody	-11.2551
▁Hallmark	-11.2551
▁Hyde	-11.2551
▁Leonard	-11.2551
▁Lillith	-11.2551
▁Mitchell	-11.2551
▁Ricci	-11.2551
▁assault	-11.2551
▁backdrop	-11.2551
▁celebrit	-11.2551
▁circle	-11.2551
▁clumsy	-11.2551
▁coincidence	-11.2551
▁colleague	-11.2551
▁custom	-11.2551
▁disagree	-11.2551
▁embarrassment	-11.2551
▁ensues	-11.2551
▁executive	-11.2551
▁horrifying	-11.2551
▁inaccurate	-11.2551
▁inconsistent	-11.2551
▁neurotic	-11.2551
▁nightclub	-11.2551
▁passengers	-11.2551
▁pearls	-11.2551
▁phony	-11.2551
▁recruit	-11.2551
▁spectrum	-11.2551
▁thieves	-11.2551
▁thirty	-11.2551
▁tremendous	-11.2551
▁trilogy	-11.2551
▁underground	-11.2551
▁vigilante	-11.2551
▁virgin	-11.2551
▁website	-11.2551
▁widow	-11.2551
▁Behind	-11.2551
▁bikini	-11.2551
▁deputy	-11.2551
▁filth	-11.2551
▁frankly	-11.2551
▁illegal	-11.2551
▁obligat	-11.2551
▁plug	-11.2551
▁strike	-11.2551
▁venture	-11.2551
▁virus	-11.2551
▁yadda	-11.2551
▁1972	-11.2551
▁Damme	-11.2551
▁Indeed	-11.2551
▁Owen	-11.2551
▁destruction	-11.2551
▁drain	-11.2551
▁edgy	-11.2551
▁fraud	-11.2551
▁official	-11.2551
▁/>4/10	-11.2551
▁Woman	-11.2551
▁static	-11.2551
▁tackle	-11.2551
Bottom	-11.2551
▁afternoon	-11.2551
▁Kathy	-11.2551
▁Tyree	-11.2551
▁Damon	-11.2551
▁firm	-11.2551
▁steam	-11.2551
brilliance	-11.2551
▁WWII	-11.2551
▁rational	-11.2551
▁Turner	-11.2551
▁digital	-11.2551
▁pray	-11.2551
▁Wanda	-11.2551
▁gloss	-11.2551
▁resume	-11.2551
▁sweat	-11.2551
▁adopt	-11.2551
▁dispos	-11.2551
▁lord	-11.2551
▁radioactive	-11.2551
▁Univers	-11.2551
▁quasi	-11.2551
▁woeful	-11.2551
OTHER	-11.2551
▁afford	-11.2551
thirst	-11.2551
smoking	-11.2551
▁informative	-11.2551
▁weather	-11.2551
▁Through	-11.2551
▁downfall	-11.2551
▁Lovecraft	-11.2551
▁grainy	-11.2551
▁vacation	-11.2551
▁School	-11.2551
▁aircraft	-11.2551
▁slave	-11.2551
▁Thankfully	-11.2551
▁Hurt	-11.2551
▁confusion	-11.2551
khan	-11.2551
▁Fiction	-11.2552
▁calm	-11.2552
▁vivid	-11.2552
▁Jackass	-11.2552
▁stalk	-11.2552
▁Return	-11.2552
▁trace	-11.2552
▁imaginable	-11.2552
▁dominate	-11.2552
▁chunk	-11.2552
▁facial	-11.2552
▁Jerk	-11.2552
▁smash	-11.2552
▁attach	-11.2552
▁Sister	-11.2552
▁vicious	-11.2552
▁100%	-11.2552
▁grasp	-11.2552
▁bob	-11.2552
▁2007	-11.2552
▁Linne	-11.2552
▁unbearable	-11.2553
▁1930	-11.2553
▁psychic	-11.2553
▁genetic	-11.2553
▁Eyes	-11.2553
▁spook	-11.2553
▁cloud	-11.2553
▁Theater	-11.2553
▁Showtime	-11.2553
▁translation	-11.2553
▁Planet	-11.2553
▁hunk	-11.2553
▁harmless	-11.2553
▁decline	-11.2554
▁lens	-11.2554
▁similarities	-11.2554
▁East	-11.2554
▁Candy	-11.2554
▁Michelle	-11.2554
DAY	-11.2554
mistress	-11.2554
▁scriptwriter	-11.2554
▁uncle	-11.2554
▁survival	-11.2555
▁Hind	-11.2556
▁hung	-11.2556
▁grind	-11.2556
▁countryside	-11.2556
▁wack	-11.2556
▁thick	-11.2556
▁Bush	-11.2556
▁Korean	-11.2556
▁cents	-11.2556
▁hideous	-11.2556
▁Harry	-11.2557
▁path	-11.2557
▁Emil	-11.2557
▁foolish	-11.2557
ROM	-11.2559
▁cabin	-11.2561
▁FX	-11.2561
▁DON	-11.2561
▁publicity	-11.2562
ugby	-11.2562
▁Street	-11.2562
▁winter	-11.2563
▁Personally	-11.2563
▁Histor	-11.2563
▁sail	-11.2564
Jaws	-11.2564
▁pathetically	-11.2564
▁Italy	-11.2564
▁nearby	-11.2564
▁Lang	-11.2567
▁sideline	-11.2567
▁affection	-11.2568
Turn	-11.257
voting	-11.257
▁bubble	-11.2571
Eye	-11.2571
▁Gate	-11.2571
▁Austin	-11.2571
▁Remember	-11.2571
▁phrase	-11.2571
▁Club	-11.2571
▁bias	-11.2572
▁policeman	-11.2572
▁Code	-11.2572
▁Franco	-11.2572
▁campus	-11.2572
▁Nick	-11.2573
Forget	-11.2574
▁=	-11.2574
▁everyday	-11.2575
▁bigot	-11.2575
▁Road	-11.2576
▁Johnson	-11.2576
▁cock	-11.2577
▁dumbest	-11.2577
▁drove	-11.2577
▁meander	-11.2578
▁cup	-11.2579
▁worship	-11.258
▁mill	-11.258
▁ranger	-11.2582
▁tribe	-11.2583
▁Fine	-11.2584
▁choppy	-11.2585
▁recommendation	-11.2585
▁busy	-11.2586
▁wage	-11.2587
▁cheek	-11.2588
▁milk	-11.2589
▁mistaken	-11.2589
▁Pep	-11.259
▁sec	-11.2591
▁photographed	-11.2592
fanatic	-11.2592
▁beast	-11.2593
▁Army	-11.2593
▁tense	-11.2594
▁exit	-11.2594
▁Andrew	-11.2598
▁improve	-11.2599
▁blast	-11.26
▁arrogant	-11.2601
Normal	-11.2601
▁brick	-11.2602
▁lonely	-11.2602
▁fortune	-11.2604
▁Thank	-11.2605
▁factory	-11.2606
eyed	-11.2608
Bride	-11.2609
▁desired	-11.2609
▁Lost	-11.2612
▁101	-11.2613
▁select	-11.2618
earned	-11.2618
▁needless	-11.2619
▁setup	-11.2621
▁improved	-11.2624
▁cutting	-11.2626
▁outset	-11.2627
▁stupidest	-11.2633
▁Granted	-11.2633
▁III	-11.2633
mission	-11.2633
▁conclude	-11.2635
7)	-11.2647
▁counter	-11.2648
▁outright	-11.2648
▁upper	-11.2652
▁distracting	-11.2655
Cherry	-11.2667
▁referr	-11.2669
▁users	-11.2669
▁Say	-11.2671
▁Welles	-11.2675
▁disappeared	-11.2685
▁Brothers	-11.2685
▁survivors	-11.2685
Gere	-11.2685
▁feed	-11.2689
polar	-11.2692
▁staged	-11.2695
▁dumber	-11.2696
▁swing	-11.2701
River	-11.2701
warm	-11.2702
▁returned	-11.2703
esque	-11.2708
▁failing	-11.2715
veral	-11.2715
2"	-11.2717
▁heap	-11.2722
▁Burns	-11.2724
▁mus	-11.2726
rupt	-11.2727
▁overuse	-11.2734
evy	-11.2736
▁Kai	-11.2739
▁designer	-11.274
▁format	-11.2742
▁observ	-11.2754
▁Fle	-11.2755
▁pale	-11.2758
▁chased	-11.276
▁painting	-11.2761
Murd	-11.2775
▁forbidd	-11.2777
▁LO	-11.2782
ipped	-11.2784
▁fired	-11.2785
▁bounc	-11.2787
ough	-11.2787
▁aired	-11.2793
yet	-11.2806
▁prob	-11.2817
rum	-11.283
▁comb	-11.2835
▁tempt	-11.2839
zed	-11.2844
▁(199	-11.2848
▁intentional	-11.2855
▁coat	-11.2868
▁Victoria	-11.2876
▁Ric	-11.2876
▁cake	-11.2879
▁Ze	-11.2883
▁pot	-11.2884
▁commented	-11.2884
▁degrad	-11.2887
▁IQ	-11.2899
40	-11.2905
bile	-11.2908
nnie	-11.2918
Harrison	-11.2925
▁MU	-11.2928
▁goodness	-11.2933
▁badness	-11.2935
▁substitute	-11.2939
goer	-11.2947
inning	-11.2953
▁Bal	-11.2975
ESS	-11.2986
▁mins	-11.2992
▁west	-11.3001
▁jet	-11.3009
Bar	-11.3012
▁completed	-11.302
▁Bor	-11.3021
▁Ham	-11.3043
▁dealt	-11.3046
Ed	-11.3048
▁settle	-11.3052
rick	-11.3052
▁Seem	-11.3101
▁Yo	-11.3116
▁slum	-11.3148
dian	-11.3173
hart	-11.3173
Rent	-11.3205
▁mon	-11.3221
signed	-11.3233
▁hum	-11.3244
▁explore	-11.3265
▁inform	-11.3313
ambo	-11.333
▁(!)	-11.3336
bul	-11.3363
*****	-11.3371
▁Nin	-11.3397
▁settl	-11.346
Go	-11.3479
ahl	-11.348
▁believ	-11.348
ookie	-11.3482
▁Ph	-11.3501
▁Nig	-11.3515
▁Unc	-11.3528
▁Dal	-11.3538
▁rac	-11.3544
aki	-11.3549
graphy	-11.361
DY	-11.3674
headed	-11.3675
▁$5	-11.3677
▁Simpson	-11.3701
▁gag	-11.3703
▁breast	-11.3707
▁figur	-11.3707
▁sport	-11.371
▁ver	-11.3714
▁compar	-11.3716
▁creator	-11.3719
▁Chic	-11.3724
servant	-11.3748
▁Sla	-11.3752
See	-11.3756
addle	-11.3761
▁improv	-11.38
hl	-11.3801
tanic	-11.3806
▁Roll	-11.3807
▁expos	-11.382
nything	-11.382
sided	-11.3831
lapping	-11.3843
▁Lie	-11.3848
▁Cap	-11.385
5%	-11.385
horny	-11.3856
▁refer	-11.3858
▁photograph	-11.3865
▁disgust	-11.3871
gree	-11.3873
▁authentic	-11.3879
orrow	-11.3879
most	-11.3888
▁Pie	-11.3891
ception	-11.3901
▁refuge	-11.3908
▁blond	-11.3912
▁complet	-11.3914
know	-11.3916
Besides	-11.3918
comfortabl	-11.3918
fortune	-11.3919
Thank	-11.3919
Basically	-11.392
ody	-11.392
Seriously	-11.392
word	-11.3921
▁possess	-11.3921
foot	-11.3921
adventure	-11.3921
correct	-11.3921
Sadly	-11.3921
Everything	-11.3922
Richard	-11.3922
Come	-11.3922
thriller	-11.3922
white	-11.3922
Hollywood	-11.3922
actually	-11.3922
poor	-11.3923
holes	-11.3923
turn	-11.3924
scene	-11.3924
sorry	-11.3927
instead	-11.3928
check	-11.3928
▁impress	-11.3929
SPOILERS	-11.3929
known	-11.393
▁identi	-11.3933
▁establish	-11.3934
master	-11.3935
wow	-11.394
blow	-11.3942
▁capital	-11.3942
▁adequate	-11.3943
▁instant	-11.3946
either	-11.3947
▁prepare	-11.3949
Other	-11.3951
avan	-11.3953
▁cam	-11.3954
▁jealous	-11.3955
oops	-11.3956
▁dirt	-11.3957
Bill	-11.396
orious	-11.396
box	-11.3961
▁pig	-11.3965
▁engine	-11.3965
both	-11.3965
▁Law	-11.3968
▁Australia	-11.3968
producer	-11.3973
▁preach	-11.3973
nett	-11.3975
▁imagina	-11.3976
CIA	-11.3977
annibal	-11.3978
cript	-11.3978
▁tech	-11.3978
ecommended	-11.3979
itude	-11.3979
*1/2	-11.3979
▁cruci	-11.3979
▁Turk	-11.398
Chappelle	-11.398
Kristin	-11.398
Predator	-11.398
Stranded	-11.398
▁1981	-11.398
▁Alucard	-11.398
▁Argento	-11.398
▁Bulgaria	-11.398
▁Certainly	-11.398
▁Curtis	-11.398
▁DEAD	-11.398
▁Diamond	-11.398
▁Govinda	-11.398
▁Hector	-11.398
▁Jonathan	-11.398
▁NASA	-11.398
▁Nickelodeon	-11.398
▁Quentin	-11.398
▁Snider	-11.398
▁Soviet	-11.398
▁Spaghetti	-11.398
▁Vaughn	-11.398
▁YouTube	-11.398
▁acquir	-11.398
▁advertising	-11.398
▁album	-11.398
▁antagonist	-11.398
▁atmospheric	-11.398
▁camcorder	-11.398
▁compromis	-11.398
▁consequences	-11.398
▁cynical	-11.398
▁drift	-11.398
▁dynamite	-11.398
▁econom	-11.398
▁education	-11.398
▁elaborate	-11.398
▁frustrating	-11.398
▁frustration	-11.398
▁giggl	-11.398
▁gorgeous	-11.398
▁gorilla	-11.398
▁gravity	-11.398
▁grotesque	-11.398
▁inevitable	-11.398
▁innovative	-11.398
▁insurgents	-11.398
▁irritate	-11.398
▁legitimate	-11.398
▁license	-11.398
▁mechanical	-11.398
▁medieval	-11.398
▁mirror	-11.398
▁ourselves	-11.398
▁patience	-11.398
▁perspective	-11.398
▁persuade	-11.398
▁pregnant	-11.398
▁ridicule	-11.398
▁significance	-11.398
▁smooth	-11.398
▁squeeze	-11.398
▁squirm	-11.398
▁storytelling	-11.398
▁stylish	-11.398
▁subsequent	-11.398
▁travesty	-11.398
▁unnatural	-11.398
▁untalented	-11.398
▁whereabouts	-11.398
▁yesterday	-11.398
▁9/11	-11.398
▁Hamilton	-11.398
▁Henriksen	-11.398
▁Hubert	-11.398
▁Leonora	-11.398
▁Levinson	-11.398
▁McLaren	-11.398
▁Milligan	-11.398
▁POW	-11.398
▁Spielberg	-11.398
▁Sunday	-11.398
▁WITH	-11.398
▁concert	-11.398
▁fodder	-11.398
▁harass	-11.398
▁juvenile	-11.398
▁mediocrity	-11.398
▁narrator	-11.398
▁nominated	-11.398
▁ocean	-11.398
▁parallel	-11.398
▁qualify	-11.398
▁religion	-11.398
▁serving	-11.398
▁Gerda	-11.398
▁Hughes	-11.398
▁dreary	-11.398
▁hokey	-11.398
▁insanity	-11.398
▁obsessi	-11.398
▁Classic	-11.398
▁Machine	-11.398
▁demise	-11.398
▁Foster	-11.398
▁Pryor	-11.398
▁commentator	-11.398
▁spawn	-11.398
▁sustain	-11.398
Raymond	-11.398
▁Drake	-11.398
▁Jeffrey	-11.398
▁gentle	-11.398
▁guide	-11.398
▁maniac	-11.398
▁visible	-11.398
▁Scout	-11.398
▁garage	-11.398
▁glorifi	-11.398
▁honor	-11.398
▁south	-11.398
▁glaring	-11.398
▁limitations	-11.398
▁babies	-11.398
▁Dallas	-11.398
▁Republicans	-11.398
▁pervert	-11.398
▁stomp	-11.398
▁region	-11.398
▁ABC	-11.398
▁Martel	-11.398
▁Weird	-11.398
▁extensi	-11.398
▁lookalike	-11.398
▁turd	-11.398
provoking	-11.398
▁Hayes	-11.398
▁convert	-11.398
▁infect	-11.398
▁loyal	-11.398
▁medium	-11.398
▁volume	-11.398
▁inherit	-11.398
▁Busey	-11.398
▁nightmare	-11.398
▁shelter	-11.398
▁/>3/10	-11.398
▁Sanders	-11.398
▁inconsistencies	-11.398
▁Silver	-11.398
▁babes	-11.398
▁centre	-11.398
▁claustrophobic	-11.398
://	-11.398
▁prize	-11.398
▁chore	-11.398
▁Trust	-11.398
▁Britain	-11.398
WHY	-11.398
▁Langdon	-11.398
▁declare	-11.398
▁captain	-11.398
▁defeat	-11.398
▁ghastly	-11.398
▁Lambs	-11.398
▁overdone	-11.398
▁backwards	-11.398
▁overacts	-11.398
▁sketch	-11.398
▁slapped	-11.398
▁nerve	-11.398
▁Jerem	-11.398
▁Graves	-11.398
Glenn	-11.398
▁Combs	-11.398
▁thankfully	-11.398
▁tiresome	-11.398
▁DIDN	-11.398
▁Tune	-11.398
▁coherent	-11.398
▁rotten	-11.398
Regard	-11.398
▁yawn	-11.3981
▁Short	-11.3981
▁Definitely	-11.3981
▁exotic	-11.3981
▁Green	-11.3981
▁Compare	-11.3981
▁steer	-11.3981
▁Extra	-11.3981
▁torment	-11.3981
▁Jewish	-11.3981
▁chair	-11.3981
▁option	-11.3981
▁Berlin	-11.3981
▁mutant	-11.3981
▁tele	-11.3981
Crime	-11.3981
▁devil	-11.3981
▁punishment	-11.3981
ODC	-11.3981
▁resemblance	-11.3981
▁wimp	-11.3981
▁Dawn	-11.3982
▁Barker	-11.3982
▁promotion	-11.3982
▁Duval	-11.3982
▁Jewel	-11.3982
▁Cleef	-11.3982
▁macho	-11.3982
▁romp	-11.3982
▁Kids	-11.3982
▁Driver	-11.3982
▁missile	-11.3982
▁weekend	-11.3982
▁progressive	-11.3982
▁snack	-11.3982
▁featurette	-11.3982
▁personalities	-11.3982
▁rewrite	-11.3982
▁hatred	-11.3982
▁underneath	-11.3982
▁info	-11.3982
▁leap	-11.3982
historic	-11.3982
▁countries	-11.3982
▁riddle	-11.3982
▁practice	-11.3983
▁patriot	-11.3983
▁culminat	-11.3983
▁gunfight	-11.3983
▁dorm	-11.3983
▁HBO	-11.3983
▁Lovers	-11.3983
▁miracle	-11.3983
neath	-11.3983
▁sky	-11.3984
▁mature	-11.3984
▁Latin	-11.3984
▁eight	-11.3984
▁liking	-11.3984
▁nick	-11.3984
▁waist	-11.3984
▁nostalgia	-11.3985
▁ripoff	-11.3985
▁diner	-11.3985
▁pornography	-11.3985
▁pipe	-11.3985
▁Portuguese	-11.3985
▁Wynorski	-11.3985
▁creativity	-11.3985
▁Cosgrove	-11.3985
▁Duvivier	-11.3985
▁hopefully	-11.3985
▁2001	-11.3985
▁addict	-11.3985
▁confession	-11.3985
Hara	-11.3985
▁proof	-11.3986
▁snowman	-11.3986
▁Jung	-11.3986
▁vol	-11.3986
▁mold	-11.3987
▁psychologist	-11.3987
▁Davies	-11.3987
anni	-11.3987
▁pound	-11.3987
▁behave	-11.3988
▁minority	-11.3988
▁stopping	-11.3988
IVE	-11.3988
▁replacement	-11.3989
▁Karl	-11.3989
▁Elm	-11.3989
▁Darkness	-11.3989
olph	-11.3989
▁Better	-11.3989
▁fangs	-11.3989
atomic	-11.399
▁Corman	-11.399
▁Four	-11.399
▁formulaic	-11.3991
▁function	-11.3991
▁labor	-11.3991
▁Hayd	-11.3992
▁Long	-11.3992
▁bearable	-11.3992
▁Rita	-11.3993
▁sold	-11.3993
▁distinctly	-11.3994
▁Joseph	-11.3994
▁Lynn	-11.3994
▁obsessed	-11.3994
▁sophisticated	-11.3994
▁Blair	-11.3994
▁Daniel	-11.3994
▁Bates	-11.3994
▁shine	-11.3994
▁invade	-11.3995
▁shadow	-11.3995
▁Pink	-11.3995
▁clueless	-11.3995
▁Actor	-11.3995
▁2006	-11.3995
▁lion	-11.3996
▁masses	-11.3997
▁Conan	-11.3998
▁Asia	-11.3998
▁lifestyle	-11.3999
▁Myster	-11.3999
▁demonic	-11.3999
Furthermore	-11.3999
▁happily	-11.3999
▁childish	-11.4
▁showdown	-11.4
▁irony	-11.4
▁chip	-11.4001
▁bond	-11.4001
▁helpful	-11.4002
▁crashes	-11.4003
stage	-11.4003
▁bitten	-11.4003
▁caper	-11.4003
▁Hollow	-11.4004
▁Real	-11.4004
▁increase	-11.4005
▁dropping	-11.4005
▁accomplished	-11.4005
▁Jost	-11.4005
▁duo	-11.4005
▁hitch	-11.4006
Clich	-11.4008
▁broad	-11.4009
▁Alice	-11.4009
▁Terr	-11.4009
▁frequently	-11.4011
▁satisfied	-11.4013
▁crushed	-11.4013
▁Alas	-11.4013
▁Terrible	-11.4013
▁cris	-11.4014
▁darkness	-11.4015
▁Bern	-11.4015
▁Phil	-11.4016
▁squad	-11.4017
▁revi	-11.4018
▁sexist	-11.4018
▁Kate	-11.4019
conscious	-11.402
▁cheated	-11.402
▁FF	-11.4022
▁inventor	-11.4024
▁colorful	-11.4024
▁/>2.	-11.4025
▁reck	-11.4025
▁Up	-11.4026
troops	-11.4027
▁rope	-11.4027
▁disgusted	-11.4027
▁Robo	-11.4028
▁Save	-11.4029
aunch	-11.4029
▁thoughtful	-11.403
▁Lor	-11.403
▁handled	-11.4031
▁Hellraiser	-11.4032
▁Honestly	-11.4032
▁Consider	-11.4032
▁stoned	-11.4032
▁overwhelming	-11.4034
▁cheating	-11.4035
▁Gun	-11.4035
▁Joel	-11.4036
ICE	-11.4037
▁dancer	-11.4038
▁heroin	-11.4039
▁hipp	-11.4039
▁severely	-11.4041
▁Besides	-11.4041
▁invented	-11.4042
▁disliked	-11.4042
▁Sean	-11.4042
▁explored	-11.4044
▁Mont	-11.4044
▁understandable	-11.4044
▁slim	-11.4044
▁Within	-11.4045
▁Later	-11.4045
▁Tale	-11.4047
▁Cold	-11.4049
▁*****	-11.405
▁Surely	-11.4051
▁fifty	-11.4053
▁Hardy	-11.4055
▁frontal	-11.4056
rray	-11.4064
HR	-11.4069
etwork	-11.407
Jur	-11.4073
▁studying	-11.4074
▁bush	-11.4076
▁billed	-11.4079
▁wounded	-11.4086
▁Back	-11.4087
▁snapp	-11.4087
▁stretched	-11.4093
naught	-11.4094
▁ranting	-11.4102
thless	-11.4103
▁rain	-11.4104
▁horn	-11.4105
▁hooker	-11.4107
▁Soon	-11.4108
▁Anna	-11.4115
▁reverse	-11.4118
▁Hand	-11.4119
▁criticize	-11.4123
▁Esse	-11.4123
▁Burt	-11.4124
▁Pan	-11.4124
▁claimed	-11.4126
phy	-11.4128
▁wine	-11.4129
gon	-11.4132
liced	-11.4145
▁complaining	-11.4145
attered	-11.4152
▁Must	-11.4152
▁convincingly	-11.4154
▁stated	-11.4173
unny	-11.4177
DU	-11.4179
▁/>3.	-11.4191
▁Bon	-11.4192
▁repress	-11.4203
▁boarding	-11.4206
▁promote	-11.4208
acabr	-11.4211
▁grating	-11.4211
▁Lou	-11.4211
ONE	-11.4213
▁***	-11.422
▁hi	-11.4224
each	-11.4226
▁whoever	-11.4226
▁Deni	-11.423
stood	-11.4232
▁uniform	-11.4237
▁gen	-11.4242
▁escaped	-11.4247
▁terroriz	-11.4256
▁Sad	-11.4266
ridden	-11.4269
?????	-11.4274
anne	-11.4298
▁respected	-11.4307
aka	-11.4308
urban	-11.4315
Che	-11.4318
▁bitch	-11.4339
WO	-11.4347
Broke	-11.4351
▁Ker	-11.4352
lways	-11.436
once	-11.4369
▁beard	-11.4372
▁Jur	-11.4373
▁pose	-11.4384
orbid	-11.4405
ulent	-11.4413
manda	-11.4416
▁SH	-11.4416
▁Dumb	-11.4422
then	-11.4427
▁commenter	-11.443
▁Wallac	-11.4452
▁Kar	-11.4458
▁preferr	-11.4461
did	-11.4466
KE	-11.4469
licate	-11.4471
▁Baron	-11.4473
cloth	-11.4484
ssassination	-11.449
tract	-11.4502
Dan	-11.4503
duty	-11.4507
uddy	-11.4511
toxic	-11.4515
▁mut	-11.4519
▁ants	-11.4538
eets	-11.4539
▁incapa	-11.4547
▁quarter	-11.4554
▁arrange	-11.4559
▁dat	-11.4559
UL	-11.4564
▁JU	-11.4576
atroni	-11.4578
cine	-11.4588
▁remark	-11.4612
Blu	-11.4619
panic	-11.4626
OUT	-11.4638
▁gap	-11.4653
loria	-11.4666
▁verg	-11.4669
▁Mid	-11.471
▁skipp	-11.4724
finitely	-11.4738
▁litera	-11.478
Sh	-11.4781
▁cram	-11.4782
wal	-11.4797
▁span	-11.4804
TER	-11.4813
Th	-11.4822
rip	-11.4831
▁operati	-11.4885
ERE	-11.4887
▁2000	-11.4892
Any	-11.4895
bot	-11.4897
▁Trac	-11.4906
etro	-11.491
▁revolv	-11.4915
▁Gene	-11.4925
▁prop	-11.4932
llows	-11.4937
!!!)	-11.4942
▁Gh	-11.4958
▁Gr	-11.4963
▁grim	-11.4988
▁plac	-11.4989
▁clo	-11.5028
rock	-11.5047
▁tan	-11.5068
▁Act	-11.507
hem	-11.5113
big	-11.5113
25	-11.5131
change	-11.5146
▁24	-11.5157
uel	-11.5172
▁Fair	-11.5178
▁equ	-11.5196
ood	-11.5225
▁WE	-11.5246
▁blam	-11.5264
▁grip	-11.5272
▁Run	-11.5278
dication	-11.5289
tube	-11.5289
▁unde	-11.5311
otte	-11.5314
TH	-11.5338
46	-11.5367
olished	-11.5368
orton	-11.5369
umpkin	-11.5373
▁preview	-11.5376
ume	-11.5377
▁Brook	-11.5378
cross	-11.5384
!!!!!	-11.5392
▁rag	-11.5397
dela	-11.5403
alance	-11.5412
14	-11.5444
▁civil	-11.5445
▁sale	-11.5446
▁Unlik	-11.545
▁harm	-11.545
▁195	-11.5455
nimal	-11.5457
▁chop	-11.5471
▁lip	-11.5476
generated	-11.5481
tile	-11.549
tically	-11.5505
▁ignor	-11.5511
stead	-11.553
▁cheat	-11.5534
erotic	-11.5538
look	-11.5548
onnie	-11.5554
▁(197	-11.5557
elected	-11.5558
▁numb	-11.5564
▁flip	-11.5565
▁argu	-11.5572
▁mode	-11.5575
▁organ	-11.5575
$	-11.5576
cream	-11.5579
Direct	-11.5579
insert	-11.5579
▁overwhelm	-11.5582
Doctor	-11.5584
Human	-11.5584
Consider	-11.5585
Hellraiser	-11.5585
Honestly	-11.5585
Meanwhile	-11.5586
quirky	-11.5586
Plan	-11.5587
Friday	-11.5587
numbers	-11.5588
standard	-11.5588
People	-11.5588
Film	-11.5588
Despi	-11.5588
Sex	-11.5588
yeah	-11.5588
William	-11.5588
Perhaps	-11.5588
Scott	-11.5589
perhaps	-11.5589
David	-11.5589
okay	-11.5589
despi	-11.5589
Nothing	-11.5589
character	-11.5589
because	-11.5589
people	-11.5589
after	-11.5589
production	-11.559
serious	-11.559
Later	-11.5591
Instead	-11.5591
balance	-11.5592
Read	-11.5593
Every	-11.5595
flick	-11.5597
▁aesthetic	-11.56
▁Fran	-11.5601
half	-11.5603
lockbuster	-11.5604
End	-11.5606
▁dang	-11.5606
etween	-11.5606
throw	-11.5608
camera	-11.5609
▁frequent	-11.5609
ALLY	-11.5611
▁eventual	-11.5612
Never	-11.5613
▁craze	-11.5614
▁ultimate	-11.5618
▁Davi	-11.5619
will	-11.5623
▁femini	-11.5625
kick	-11.5627
▁abduct	-11.5631
mostly	-11.5633
▁studi	-11.5633
▁Under	-11.5637
WAY	-11.5638
xperts	-11.5638
▁symbol	-11.5639
▁liber	-11.564
▁Lind	-11.564
God	-11.5642
▁alcohol	-11.5642
▁Mario	-11.5642
earing	-11.5643
imaginative	-11.5644
stitute	-11.5644
>	-11.5644
aranormal	-11.5645
▁Wonder	-11.5645
▁Rubin	-11.5646
▁simulat	-11.5646
▁sloppi	-11.5646
▁compliment	-11.5646
▁condemn	-11.5646
▁humiliat	-11.5646
▁league	-11.5646
▁sorority	-11.5646
Airplane	-11.5646
HEART	-11.5646
Technic	-11.5646
achieving	-11.5646
magnificent	-11.5646
sarcasm	-11.5646
▁1987	-11.5646
▁Academy	-11.5646
▁Arizona	-11.5646
▁Basterds	-11.5646
▁Bihn	-11.5646
▁Broadway	-11.5646
▁Cheerlead	-11.5646
▁Colonel	-11.5646
▁Complete	-11.5646
▁Concorde	-11.5646
▁Democrat	-11.5646
▁Dietrich	-11.5646
▁Fantasy	-11.5646
▁Gabriel	-11.5646
▁Galaxy	-11.5646
▁Griffith	-11.5646
▁HORROR	-11.5646
▁Jacob	-11.5646
▁Lupino	-11.5646
▁MAGOO	-11.5646
▁Manhattan	-11.5646
▁Margera	-11.5646
▁Matrix	-11.5646
▁Miranda	-11.5646
▁NBC	-11.5646
▁Naturally	-11.5646
▁Netflix	-11.5646
▁SHOW	-11.5646
▁Samantha	-11.5646
▁Shepherd	-11.5646
▁Spears	-11.5646
▁Spiderman	-11.5646
▁Sutherland	-11.5646
▁Sylvi	-11.5646
▁Thompson	-11.5646
▁Treadwell	-11.5646
▁Underdog	-11.5646
▁VILLA	-11.5646
▁Waverly	-11.5646
▁advantage	-11.5646
▁basket	-11.5646
▁bridge	-11.5646
▁censor	-11.5646
▁chemical	-11.5646
▁cigar	-11.5646
▁companies	-11.5646
▁contrary	-11.5646
▁corridor	-11.5646
▁disastrous	-11.5646
▁disregard	-11.5646
▁dynamic	-11.5646
▁empathy	-11.5646
▁eternity	-11.5646
▁ethnic	-11.5646
▁exhibit	-11.5646
▁exterior	-11.5646
▁fiasco	-11.5646
▁fortunate	-11.5646
▁grieving	-11.5646
▁imprison	-11.5646
▁ingredients	-11.5646
▁injury	-11.5646
▁intimidat	-11.5646
▁irrelevant	-11.5646
▁kitchen	-11.5646
▁lovable	-11.5646
▁manipulated	-11.5646
▁misleading	-11.5646
▁misunderstand	-11.5646
▁monologue	-11.5646
▁neighborhood	-11.5646
▁orphanage	-11.5646
▁philosophy	-11.5646
▁predecessor	-11.5646
▁prejudice	-11.5646
▁preparation	-11.5646
▁professor	-11.5646
▁prominent	-11.5646
▁proportions	-11.5646
▁register	-11.5646
▁resolution	-11.5646
▁screech	-11.5646
▁sensitive	-11.5646
▁snooze	-11.5646
▁strateg	-11.5646
▁stunned	-11.5646
▁substanti	-11.5646
▁suicidal	-11.5646
▁supreme	-11.5646
▁synopsis	-11.5646
▁tattoo	-11.5646
▁tepid	-11.5646
▁triangle	-11.5646
▁triumph	-11.5646
▁undeveloped	-11.5646
▁unlikable	-11.5646
▁unnecessarily	-11.5646
▁vessel	-11.5646
▁voyage	-11.5646
fetched	-11.5646
hipwreck	-11.5646
▁Almodovar	-11.5646
▁Alpha	-11.5646
▁NYC	-11.5646
▁Spike	-11.5646
▁Weapon	-11.5646
▁exorcis	-11.5646
▁feeble	-11.5646
▁hackneyed	-11.5646
▁pleasing	-11.5646
▁prequel	-11.5646
▁shield	-11.5646
▁sinister	-11.5646
▁spiral	-11.5646
▁supply	-11.5646
▁territory	-11.5646
PLUMP	-11.5646
zzle	-11.5646
▁Everett	-11.5646
▁Hudson	-11.5646
▁LTL	-11.5646
▁MGM	-11.5646
▁Pierce	-11.5646
▁Sandler	-11.5646
▁Shatner	-11.5646
▁Tucker	-11.5646
▁dedicate	-11.5646
▁rapidly	-11.5646
▁razor	-11.5646
▁choreograph	-11.5646
▁crippl	-11.5646
▁delightful	-11.5646
▁gritty	-11.5646
▁request	-11.5646
▁Ollie	-11.5646
▁Slayer	-11.5646
▁Welch	-11.5646
▁civilians	-11.5646
▁devour	-11.5646
▁identify	-11.5646
▁magn	-11.5646
▁timing	-11.5646
▁Field	-11.5646
▁litter	-11.5646
▁pride	-11.5646
-16	-11.5646
▁/>1/10	-11.5646
▁buzz	-11.5646
▁qualifie	-11.5646
▁Radu	-11.5646
▁clinic	-11.5646
▁fetish	-11.5646
▁Brando	-11.5646
▁dawn	-11.5646
omebody	-11.5646
▁Ellen	-11.5646
▁MIAs	-11.5646
▁Cream	-11.5646
▁disabled	-11.5646
▁Brain	-11.5646
▁Carrot	-11.5646
▁Until	-11.5646
▁vengeance	-11.5646
▁havoc	-11.5646
▁stairs	-11.5646
Enough	-11.5646
▁demonstrat	-11.5646
▁flames	-11.5646
▁dismal	-11.5646
▁heaven	-11.5646
▁hysterical	-11.5646
▁concoct	-11.5646
▁portal	-11.5646
▁auteur	-11.5646
▁beware	-11.5646
▁darn	-11.5646
elusion	-11.5646
▁ladies	-11.5646
!!!!!!!!!!!!	-11.5646
RATING	-11.5646
▁Aaron	-11.5646
motivated	-11.5646
Legend	-11.5647
▁embrace	-11.5647
▁narcissistic	-11.5647
MAKE	-11.5647
▁rude	-11.5647
▁Irving	-11.5647
▁miniseries	-11.5647
▁Anderson	-11.5647
▁rising	-11.5647
lusive	-11.5647
▁Adventure	-11.5647
▁mutilat	-11.5647
▁facility	-11.5647
▁Tell	-11.5647
▁meteor	-11.5647
▁Curry	-11.5647
▁Serb	-11.5647
▁cloning	-11.5647
▁grandfather	-11.5647
▁divide	-11.5647
▁straightforward	-11.5647
▁Wesley	-11.5647
▁Morris	-11.5647
▁Simple	-11.5647
oyote	-11.5647
▁blew	-11.5647
▁employee	-11.5647
▁shift	-11.5647
▁Wild	-11.5647
▁afterwards	-11.5647
▁Brink	-11.5647
vious	-11.5647
hhh	-11.5647
palace	-11.5647
▁cobbl	-11.5647
▁humble	-11.5647
communist	-11.5647
▁depart	-11.5648
▁2008	-11.5648
▁spiritual	-11.5648
▁Pleasence	-11.5648
▁swamp	-11.5648
roopers	-11.5648
▁depressed	-11.5648
▁enlist	-11.5648
▁pathos	-11.5648
▁electricity	-11.5648
▁ensure	-11.5648
▁imitation	-11.5648
▁hammy	-11.5648
▁baseball	-11.5648
▁Clint	-11.5648
▁Train	-11.5648
▁Demons	-11.5648
Hulk	-11.5648
▁Bava	-11.5649
▁2005	-11.5649
▁whiny	-11.5649
▁unfair	-11.5649
▁mount	-11.5649
▁occurred	-11.5649
▁airport	-11.5649
▁reprise	-11.5649
▁Spoilers	-11.5649
▁charismatic	-11.5649
▁fond	-11.5649
▁firing	-11.5649
▁Mind	-11.5649
▁strive	-11.5649
▁gunshot	-11.5649
▁collective	-11.5649
▁observation	-11.5649
nterrupted	-11.5649
▁Reality	-11.5649
damaged	-11.5649
▁sappy	-11.5649
▁Nicholas	-11.5649
▁auto	-11.5649
▁mayhem	-11.565
antastic	-11.565
▁GOD	-11.565
▁limp	-11.565
▁Howell	-11.565
▁paranoia	-11.565
▁STAR	-11.565
▁vital	-11.565
▁alcoholic	-11.565
▁chuckle	-11.565
▁thrust	-11.565
▁arouse	-11.565
▁Hope	-11.565
▁Zellweger	-11.565
▁Everest	-11.565
▁unremarkable	-11.5651
pick	-11.5651
▁Warren	-11.5651
▁fluff	-11.5651
▁modest	-11.5651
▁property	-11.5651
▁poker	-11.5651
▁baddies	-11.5652
▁zone	-11.5652
▁debat	-11.5652
▁linger	-11.5652
▁torn	-11.5652
▁loop	-11.5652
▁involvement	-11.5652
▁flair	-11.5652
▁stress	-11.5652
▁Alba	-11.5652
▁cohesive	-11.5652
▁Elam	-11.5652
▁McConaughey	-11.5653
▁marvel	-11.5653
▁Schwarzenegger	-11.5653
▁considerably	-11.5653
Simply	-11.5653
▁Mummy	-11.5653
▁operation	-11.5653
▁arrival	-11.5653
incarnat	-11.5653
▁rampa	-11.5653
▁Leland	-11.5654
▁Grand	-11.5654
▁representation	-11.5654
▁winner	-11.5654
▁tail	-11.5654
▁sadistic	-11.5654
▁blessing	-11.5655
▁Sara	-11.5655
▁Sweden	-11.5655
▁International	-11.5655
▁sentimental	-11.5656
▁Jay	-11.5656
▁maintain	-11.5656
▁Prince	-11.5656
▁gum	-11.5657
▁Willis	-11.5657
NSA	-11.5657
▁minus	-11.5657
▁grant	-11.5657
▁illness	-11.5658
▁Light	-11.5658
▁$3	-11.5658
▁payoff	-11.5658
▁birthday	-11.5658
▁Kong	-11.5658
▁bald	-11.5659
▁patch	-11.5659
▁iron	-11.566
▁Goodman	-11.566
▁unreal	-11.5661
▁applaud	-11.5661
▁summarize	-11.5662
▁Body	-11.5663
▁tv	-11.5663
▁momentum	-11.5663
▁engineer	-11.5663
▁Nobody	-11.5663
▁Steiger	-11.5663
▁Ernest	-11.5663
▁Fortunately	-11.5663
▁Mongolian	-11.5663
▁Scarlett	-11.5663
▁Vacation	-11.5663
▁Writer	-11.5663
▁pistol	-11.5663
▁Office	-11.5664
▁sexuality	-11.5664
▁intro	-11.5664
▁terrifying	-11.5664
▁Den	-11.5664
▁sneak	-11.5664
▁vice	-11.5665
elite	-11.5665
▁spice	-11.5665
ACT	-11.5665
▁Vince	-11.5665
▁cleverness	-11.5666
▁traditional	-11.5666
▁Hank	-11.5667
▁Rich	-11.5667
▁advertised	-11.5667
▁flashes	-11.5667
▁meantime	-11.5669
▁soph	-11.5669
▁Deep	-11.5669
▁Herman	-11.5669
▁overacting	-11.567
▁resolved	-11.567
Conclusion	-11.5671
001	-11.5672
▁Bette	-11.5672
unior	-11.5673
▁dement	-11.5673
▁jealousy	-11.5676
▁overlong	-11.5676
▁beaten	-11.5677
▁35	-11.5678
▁insightful	-11.5678
▁Rip	-11.5678
▁Fisher	-11.5679
▁crazed	-11.5679
▁dragon	-11.568
▁update	-11.568
▁greedy	-11.568
▁Fire	-11.5681
▁GO	-11.5682
another	-11.5682
▁sur	-11.5682
▁belt	-11.5682
▁Werewol	-11.5684
▁outcast	-11.5684
She	-11.5685
▁Anth	-11.5685
▁cancer	-11.5686
▁adequately	-11.569
▁improvise	-11.5691
▁/>4.	-11.5692
▁justified	-11.5692
daring	-11.5693
Did	-11.5693
▁22	-11.5695
lving	-11.5695
▁fist	-11.5696
EG	-11.5697
▁Armageddon	-11.5697
simil	-11.5698
▁stereotyped	-11.5698
lop	-11.5699
Silv	-11.57
hiding	-11.5702
▁Direct	-11.5702
▁initially	-11.5704
▁crosses	-11.5706
▁Nest	-11.5707
also	-11.5707
▁Doctor	-11.5709
▁tuned	-11.5709
▁anyhow	-11.5709
▁Gray	-11.5714
▁philosophi	-11.5715
▁surfer	-11.5716
Miche	-11.5716
▁participate	-11.5717
▁Cry	-11.5718
▁Human	-11.5718
▁argue	-11.5719
▁Away	-11.5721
▁butcher	-11.5722
dispute	-11.5722
▁physically	-11.5724
▁hyped	-11.5727
▁hatch	-11.5727
▁Party	-11.573
▁refugee	-11.5732
▁TR	-11.5732
▁driven	-11.5732
emic	-11.5733
▁Mol	-11.5737
▁linear	-11.5737
▁appreciati	-11.5743
▁Dear	-11.5743
▁hitting	-11.5745
▁Rem	-11.5751
▁abused	-11.5751
▁numbing	-11.5752
guy	-11.5755
▁Denn	-11.5759
▁tag	-11.5759
Southern	-11.576
▁Kay	-11.5762
consci	-11.5764
▁alas	-11.5766
afia	-11.5776
drum	-11.5776
▁Indiana	-11.5777
▁wishes	-11.578
two	-11.5781
!?!	-11.5787
▁tease	-11.5789
VEN	-11.5799
▁fuzz	-11.5802
▁closer	-11.5805
▁asses	-11.5808
▁hurr	-11.5808
▁Tea	-11.5812
-20	-11.5837
bait	-11.5853
▁SP	-11.5857
llies	-11.5858
▁miner	-11.5862
▁Osa	-11.5864
▁Shaw	-11.5867
remarkable	-11.5869
▁Rey	-11.5869
▁junkie	-11.5885
▁stake	-11.5886
Admittedly	-11.5927
▁Witch	-11.5932
▁archiv	-11.5933
▁Killer	-11.5935
▁filler	-11.5939
????	-11.5943
▁seduc	-11.596
▁tax	-11.5966
create	-11.5968
▁participat	-11.5978
estination	-11.5983
▁trucker	-11.5994
TEN	-11.5998
Isn	-11.601
ku	-11.6016
Godfather	-11.6032
▁prov	-11.6046
breaking	-11.6052
itto	-11.6059
businessmen	-11.6069
post	-11.6083
▁nav	-11.6092
▁abusi	-11.6099
▁Ev	-11.6103
▁surrealis	-11.6104
EW	-11.6182
▁gut	-11.6195
Pu	-11.6225
▁mish	-11.6232
▁compet	-11.6233
lding	-11.6261
▁suburb	-11.6299
qua	-11.6308
▁tortur	-11.631
▁unemploy	-11.636
TOO	-11.6367
▁Vice	-11.6372
▁Chil	-11.6376
arren	-11.6384
vocati	-11.6391
onda	-11.6395
AMA	-11.6401
▁Roman	-11.6417
▁react	-11.6439
▁shad	-11.6444
▁[19	-11.6461
▁adventur	-11.6468
1965	-11.6469
loud	-11.6476
▁ep	-11.6498
▁Chi	-11.6504
▁camper	-11.6507
▁Ver	-11.6523
hav	-11.6529
▁infinite	-11.6641
chin	-11.6652
Tar	-11.6655
▁elevat	-11.6678
lsen	-11.6683
▁translat	-11.6714
rett	-11.6735
VE	-11.6742
OME	-11.6759
▁math	-11.6836
merge	-11.6845
▁packag	-11.6858
▁mute	-11.6933
▁coma	-11.6939
icles	-11.6955
lumber	-11.6957
▁Um	-11.6971
▁compete	-11.6979
▁Wall	-11.7024
▁List	-11.7053
▁Harris	-11.7055
▁stab	-11.7078
▁$10	-11.7126
▁Victor	-11.7129
▁Assassin	-11.7131
▁Budd	-11.7162
INE	-11.7177
▁(200	-11.7184
▁Harp	-11.7186
mash	-11.7196
▁Barb	-11.7211
India	-11.724
▁crapp	-11.7254
▁mil	-11.7266
mont	-11.7266
moving	-11.727
▁mop	-11.7312
dmittedly	-11.7318
▁distr	-11.7328
▁Marl	-11.7333
▁error	-11.7371
▁bullet	-11.7375
▁folk	-11.738
rgen	-11.7387
▁Burn	-11.7395
▁Leo	-11.7423
opping	-11.744
ffect	-11.7456
12	-11.746
military	-11.7506
▁1000	-11.751
Pro	-11.7516
attering	-11.7538
west	-11.7557
▁Marti	-11.7557
▁arrogan	-11.7564
oggy	-11.7568
pathetic	-11.7572
write	-11.7577
▁smil	-11.7578
clear	-11.7579
▁battl	-11.758
Armageddon	-11.7584
Dear	-11.7584
original	-11.7585
craft	-11.7585
cheek	-11.7585
Lost	-11.7586
experienced	-11.7586
ifying	-11.7587
Awful	-11.7587
cake	-11.7587
Poor	-11.7587
public	-11.7587
Otherwise	-11.7588
writer	-11.7588
Though	-11.7588
actresses	-11.7588
drama	-11.7588
focus	-11.7588
familiar	-11.7588
plus	-11.7588
Black	-11.7588
language	-11.7588
Peter	-11.7589
amount	-11.7589
important	-11.7589
House	-11.7589
average	-11.7589
James	-11.7589
space	-11.7589
child	-11.7589
complete	-11.7589
except	-11.7589
figure	-11.7589
twist	-11.7589
second	-11.7589
different	-11.7589
terrible	-11.7589
earth	-11.7589
stories	-11.7589
power	-11.7589
genre	-11.7589
great	-11.7589
feel	-11.7589
justice	-11.759
Would	-11.759
credit	-11.7591
particularly	-11.7591
Good	-11.7592
▁ghouli	-11.7593
ddler	-11.7593
again	-11.7594
count	-11.7595
human	-11.7598
Over	-11.7599
▁crush	-11.7599
Which	-11.76
▁retard	-11.76
▁shout	-11.76
onald	-11.7602
Eric	-11.7603
▁profession	-11.7604
45	-11.7604
load	-11.7604
huh	-11.7604
personal	-11.7605
level	-11.7606
Right	-11.7609
▁inspire	-11.7614
clusion	-11.7615
Part	-11.7618
▁quirk	-11.7622
▁slash	-11.7623
eeming	-11.7625
cool	-11.7625
rice	-11.7629
Does	-11.7633
▁Russia	-11.7635
Hell	-11.7637
hour	-11.764
▁mirac	-11.7641
▁Nichol	-11.7642
▁fruit	-11.7643
zzie	-11.7643
▁differ	-11.7644
▁stumbl	-11.7644
alogue	-11.7645
▁cook	-11.7645
▁practi	-11.7645
nosaur	-11.7646
▁revolution	-11.7646
▁comprehen	-11.7646
▁respons	-11.7646
▁stereo	-11.7646
▁smug	-11.7646
▁plod	-11.7646
Professor	-11.7646
▁Execut	-11.7646
▁Radzoff	-11.7646
▁optimis	-11.7646
▁rehearsal	-11.7646
▁sublime	-11.7646
▁submarine	-11.7646
2:37	-11.7646
Caribbean	-11.7646
DeCoteau	-11.7646
Django	-11.7646
Dungeon	-11.7646
Shuttle	-11.7646
Yesterday	-11.7646
enobites	-11.7646
esquire	-11.7646
excusable	-11.7646
ndependence	-11.7646
squid	-11.7646
▁1994	-11.7646
▁Affleck	-11.7646
▁BLOOD	-11.7646
▁Baldwin	-11.7646
▁Beauty	-11.7646
▁Belushi	-11.7646
▁Castro	-11.7646
▁Children	-11.7646
▁Claibourne	-11.7646
▁Crisp	-11.7646
▁Dangerfield	-11.7646
▁Detective	-11.7646
▁Dylan	-11.7646
▁Englund	-11.7646
▁FOX	-11.7646
▁IMDB	-11.7646
▁Isobel	-11.7646
▁Jamaica	-11.7646
▁Keira	-11.7646
▁Kentucky	-11.7646
▁Kilmer	-11.7646
▁Knautz	-11.7646
▁Language	-11.7646
▁Lopez	-11.7646
▁Lorelei	-11.7646
▁Merchant	-11.7646
▁Mirren	-11.7646
▁PLOT	-11.7646
▁Puppet	-11.7646
▁Python	-11.7646
▁Quigley	-11.7646
▁Ritchie	-11.7646
▁Samurai	-11.7646
▁Scotland	-11.7646
▁Spirit	-11.7646
▁Studios	-11.7646
▁Tenchi	-11.7646
▁Tilney	-11.7646
▁Veronica	-11.7646
▁Vittoria	-11.7646
▁Wurtzel	-11.7646
▁ZERO	-11.7646
▁abortion	-11.7646
▁activities	-11.7646
▁airplane	-11.7646
▁altogether	-11.7646
▁analysis	-11.7646
▁autobiography	-11.7646
▁barbershop	-11.7646
▁bartender	-11.7646
▁behaviour	-11.7646
▁biopic	-11.7646
▁botched	-11.7646
▁campaign	-11.7646
▁centuries	-11.7646
▁circuit	-11.7646
▁circus	-11.7646
▁colonel	-11.7646
▁communicate	-11.7646
▁contradict	-11.7646
▁cyborg	-11.7646
▁debacle	-11.7646
▁default	-11.7646
▁definition	-11.7646
▁depression	-11.7646
▁desperation	-11.7646
▁discipline	-11.7646
▁disintegrat	-11.7646
▁distasteful	-11.7646
▁draft	-11.7646
▁electrocut	-11.7646
▁ensemble	-11.7646
▁entitled	-11.7646
▁exaggerated	-11.7646
▁exclusive	-11.7646
▁extraordinary	-11.7646
▁fabulous	-11.7646
▁gigantic	-11.7646
▁grandmother	-11.7646
▁guerrilla	-11.7646
▁gymnastics	-11.7646
▁gypsy	-11.7646
▁hollow	-11.7646
▁homophobic	-11.7646
▁immense	-11.7646
▁innocence	-11.7646
▁insomnia	-11.7646
▁journalist	-11.7646
▁luxury	-11.7646
▁meltdown	-11.7646
▁merciless	-11.7646
▁monotone	-11.7646
▁monotonous	-11.7646
▁monstrosity	-11.7646
▁monstrous	-11.7646
▁neglect	-11.7646
▁neighbour	-11.7646
▁nemesis	-11.7646
▁occult	-11.7646
▁permanent	-11.7646
▁perverse	-11.7646
▁rabbit	-11.7646
▁reappear	-11.7646
▁redneck	-11.7646
▁redundan	-11.7646
▁retrieve	-11.7646
▁sarcastic	-11.7646
▁savage	-11.7646
▁schtick	-11.7646
▁silence	-11.7646
▁sluggish	-11.7646
▁smirk	-11.7646
▁solution	-11.7646
▁splash	-11.7646
▁stagecoach	-11.7646
▁sufficient	-11.7646
▁supermarket	-11.7646
▁syrup	-11.7646
▁treasure	-11.7646
▁unanswered	-11.7646
▁unattractive	-11.7646
▁underdeveloped	-11.7646
▁unfaithful	-11.7646
▁unforgivable	-11.7646
▁voyeuristic	-11.7646
▁whack	-11.7646
▁wretched	-11.7646
▁Anthara	-11.7646
▁Darwin	-11.7646
▁Generation	-11.7646
▁Paxton	-11.7646
▁STUPID	-11.7646
▁Thornton	-11.7646
▁Wolf	-11.7646
▁Zealand	-11.7646
▁abundan	-11.7646
▁aggravat	-11.7646
▁biography	-11.7646
▁companion	-11.7646
▁exaggerating	-11.7646
▁finance	-11.7646
▁goddess	-11.7646
▁inferior	-11.7646
▁intensity	-11.7646
▁muscle	-11.7646
▁nurse	-11.7646
▁overbearing	-11.7646
▁potato	-11.7646
▁revolt	-11.7646
▁smack	-11.7646
▁staff	-11.7646
▁transition	-11.7646
▁vulgar	-11.7646
▁wheelchair	-11.7646
STORY	-11.7646
▁(198	-11.7646
▁Nightmare	-11.7646
▁Saddam	-11.7646
▁Squad	-11.7646
▁Stefan	-11.7646
▁Stereotypes	-11.7646
▁Watson	-11.7646
▁Wrong	-11.7646
▁buffoon	-11.7646
▁essence	-11.7646
▁implied	-11.7646
▁karate	-11.7646
▁nonetheless	-11.7646
▁reserve	-11.7646
▁yourselves	-11.7646
▁Edison	-11.7646
▁Gedren	-11.7646
▁Muller	-11.7646
▁Sterling	-11.7646
▁hitchhik	-11.7646
Clearly	-11.7646
▁Boorman	-11.7646
▁Cushing	-11.7646
▁Tramp	-11.7646
▁morph	-11.7646
▁vocal	-11.7646
Usually	-11.7646
▁Perkins	-11.7646
▁Thanksgiving	-11.7646
▁Wisdom	-11.7646
▁chomp	-11.7646
▁mysteries	-11.7646
▁slob	-11.7646
▁warrant	-11.7646
▁wicked	-11.7646
cclaimed	-11.7646
▁WHI	-11.7646
▁sprinkl	-11.7646
▁aimlessly	-11.7646
▁spoon	-11.7646
▁Carrell	-11.7646
▁Drama	-11.7646
▁daily	-11.7646
▁Agent	-11.7646
▁Destiny	-11.7646
▁dentist	-11.7646
▁library	-11.7646
▁restrain	-11.7646
▁Emma	-11.7646
▁staple	-11.7646
Empire	-11.7646
construction	-11.7646
▁aftermath	-11.7646
▁enrage	-11.7646
▁mankind	-11.7646
▁euro	-11.7646
▁Peak	-11.7646
▁deaf	-11.7646
zza	-11.7646
▁Hearst	-11.7646
▁Susan	-11.7646
▁eyeballs	-11.7646
▁stash	-11.7646
▁Douglas	-11.7646
▁Dream	-11.7646
▁shuttle	-11.7646
▁Carell	-11.7646
▁enhanc	-11.7646
▁distant	-11.7646
▁gush	-11.7646
▁steady	-11.7646
hastly	-11.7646
▁LOVE	-11.7646
▁honey	-11.7646
▁Betty	-11.7646
▁plodding	-11.7646
▁reign	-11.7646
▁(*1/2)	-11.7646
▁exceed	-11.7646
▁faint	-11.7646
▁estate	-11.7646
▁futile	-11.7646
▁domain	-11.7646
▁hesitate	-11.7646
▁$$	-11.7646
▁drumm	-11.7646
▁witchcraft	-11.7646
▁Faye	-11.7646
▁Left	-11.7646
▁distress	-11.7646
▁acknowledge	-11.7647
▁Hawk	-11.7647
▁believability	-11.7647
▁captor	-11.7647
▁Pear	-11.7647
▁quantit	-11.7647
▁literature	-11.7647
▁underscore	-11.7647
▁Him	-11.7647
▁scoring	-11.7647
▁Gosling	-11.7647
▁moderate	-11.7647
▁forehead	-11.7647
▁Butchers	-11.7647
▁audition	-11.7647
▁idol	-11.7647
▁carniv	-11.7647
▁Cannes	-11.7647
▁Bryan	-11.7647
▁Hopefully	-11.7647
▁sample	-11.7647
illusion	-11.7647
▁1991	-11.7647
▁Coburn	-11.7647
▁preced	-11.7647
▁defense	-11.7647
▁Republic	-11.7647
▁Cassi	-11.7647
▁CSI	-11.7647
▁Gregory	-11.7647
▁Bennett	-11.7647
▁terminal	-11.7647
▁sulk	-11.7647
▁expensive	-11.7647
▁Cave	-11.7647
▁justify	-11.7647
▁Bergen	-11.7647
▁flood	-11.7647
▁uptight	-11.7647
▁uglie	-11.7647
▁uncover	-11.7647
▁Carolina	-11.7647
▁ignorance	-11.7647
▁Grier	-11.7647
▁dripp	-11.7647
▁shining	-11.7648
▁Bernard	-11.7648
▁profound	-11.7648
▁secure	-11.7648
▁Civi	-11.7648
▁contract	-11.7648
undercover	-11.7648
▁outrage	-11.7648
WTF	-11.7648
▁Popp	-11.7648
▁strut	-11.7648
▁improbable	-11.7648
▁lunch	-11.7648
fathom	-11.7648
▁groom	-11.7648
▁erupt	-11.7648
▁jean	-11.7648
▁Chains	-11.7648
▁bedroom	-11.7648
▁Patricia	-11.7648
▁poison	-11.7648
▁hoot	-11.7648
▁pressure	-11.7648
▁Bradley	-11.7648
▁Spain	-11.7648
▁alarm	-11.7648
▁lyric	-11.7649
Snake	-11.7649
▁discount	-11.7649
▁Gamera	-11.7649
▁dough	-11.7649
▁kung	-11.7649
▁1999	-11.7649
▁underwear	-11.7649
▁HOW	-11.7649
▁Could	-11.7649
▁authorities	-11.7649
▁paranormal	-11.7649
▁Valley	-11.7649
▁Shiban	-11.7649
▁Midian	-11.7649
▁Moreover	-11.7649
▁roof	-11.7649
▁Lauren	-11.7649
▁yellow	-11.7649
▁kidding	-11.7649
ivated	-11.7649
Mary	-11.7649
▁angst	-11.7649
▁cringing	-11.7649
▁canvas	-11.765
▁cavemen	-11.765
▁panties	-11.765
▁Baker	-11.765
▁Laden	-11.765
Harlem	-11.765
▁slide	-11.765
▁echo	-11.765
▁Kingdom	-11.765
▁slack	-11.765
ULL	-11.765
venue	-11.765
▁jury	-11.765
Zoe	-11.765
▁Outside	-11.7651
▁Dilly	-11.7651
▁"1"	-11.7651
▁True	-11.7651
valent	-11.7651
▁Judge	-11.7651
▁barney	-11.7651
▁Swain	-11.7651
▁bowl	-11.7651
▁confrontation	-11.7651
bury	-11.7652
▁shotgun	-11.7652
▁raving	-11.7652
▁unimaginative	-11.7652
▁breathtaking	-11.7652
▁limb	-11.7652
▁skimp	-11.7652
Break	-11.7652
▁LOT	-11.7653
▁masterful	-11.7653
▁imagery	-11.7653
▁lightning	-11.7653
▁symbolic	-11.7653
▁Giant	-11.7654
▁SCI	-11.7654
▁bombard	-11.7654
▁Frankie	-11.7654
▁Foreigner	-11.7654
▁Jew	-11.7654
▁poop	-11.7654
▁Couldn	-11.7655
▁mentality	-11.7655
▁Milian	-11.7655
▁stale	-11.7655
Sure	-11.7655
▁consistent	-11.7655
▁earnest	-11.7656
oggi	-11.7656
▁adaption	-11.7656
▁Terror	-11.7656
▁letdown	-11.7657
▁Michel	-11.7657
▁Sunny	-11.7657
▁EVERY	-11.7657
▁predat	-11.7657
▁1933	-11.7657
▁Game	-11.7658
▁Burton	-11.7658
▁surge	-11.7658
▁Loren	-11.7658
▁Doom	-11.7658
▁secretary	-11.7659
▁Udo	-11.7659
▁possesses	-11.7659
Class	-11.7659
gymnast	-11.7659
oison	-11.766
▁spout	-11.766
characterisation	-11.766
Amato	-11.766
▁cub	-11.7661
▁Leno	-11.7661
▁contribution	-11.7661
▁scout	-11.7661
▁HOL	-11.7661
▁morality	-11.7662
▁AWAY	-11.7662
▁duck	-11.7662
▁liar	-11.7662
▁Raci	-11.7662
STER	-11.7662
▁passage	-11.7662
ontaine	-11.7663
▁Nata	-11.7664
▁Lola	-11.7664
▁diverse	-11.7664
▁HOR	-11.7664
▁progresses	-11.7664
▁STA	-11.7665
▁consideration	-11.7665
▁Worse	-11.7666
river	-11.7666
▁flab	-11.7666
▁Beck	-11.7666
▁madness	-11.7666
▁Maria	-11.7666
▁golden	-11.7666
▁Christianity	-11.7667
▁comeback	-11.7668
ilian	-11.7668
▁Fight	-11.7669
bbie	-11.7669
▁Dante	-11.7669
▁tenant	-11.767
Underworld	-11.7671
▁Julian	-11.7672
▁divorced	-11.7672
▁eliminated	-11.7672
▁Apes	-11.7672
▁shall	-11.7673
▁Luck	-11.7673
ogether	-11.7673
▁sickness	-11.7674
▁Inki	-11.7675
▁nit	-11.7675
▁Wick	-11.7676
fication	-11.7677
Have	-11.7678
▁overcome	-11.7678
door	-11.7678
▁Twin	-11.7679
▁cage	-11.7679
▁neo	-11.768
▁Coen	-11.7682
▁selfish	-11.7683
▁Terry	-11.7683
▁Vietnames	-11.7684
▁punches	-11.7686
tangle	-11.7686
▁perfection	-11.7688
▁hellish	-11.7688
▁headline	-11.7688
▁perpetual	-11.7688
▁JP	-11.7689
ranged	-11.769
▁Didn	-11.769
▁kit	-11.769
▁Want	-11.769
ACE	-11.7693
▁imitate	-11.7693
lika	-11.7695
destructi	-11.7697
▁Forty	-11.7699
▁capitalize	-11.77
▁universal	-11.77
wear	-11.7701
▁urin	-11.7701
▁peak	-11.7702
▁overrated	-11.7702
been	-11.7704
2003	-11.7706
▁Sue	-11.7708
rleans	-11.7717
▁touches	-11.7722
▁Song	-11.7724
mpered	-11.7724
▁cus	-11.7726
▁Middle	-11.7728
▁dear	-11.7737
Comments	-11.7739
▁square	-11.7745
▁Perl	-11.7747
▁Cage	-11.7749
engi	-11.7755
▁Josh	-11.7755
zel	-11.7756
▁Russ	-11.7765
▁barn	-11.7765
Lesl	-11.7766
guise	-11.7768
▁Rest	-11.7768
▁rage	-11.7777
awyer	-11.7794
plight	-11.7796
endel	-11.7799
▁menu	-11.7804
▁flipp	-11.7807
▁shak	-11.7815
mbs	-11.7816
▁sympathize	-11.7827
soft	-11.7829
Today	-11.7852
▁toleran	-11.7853
identifi	-11.787
▁demean	-11.7886
▁Kara	-11.7887
Free	-11.7893
▁tendenc	-11.7913
▁shave	-11.7938
82	-11.7956
true	-11.7964
▁vet	-11.7982
91	-11.7989
gage	-11.799
▁Thor	-11.8009
road	-11.8024
77	-11.8025
Cow	-11.8035
90%	-11.8046
hur	-11.8066
effe	-11.8079
▁shameful	-11.8083
Congo	-11.809
▁tub	-11.8111
matter	-11.8126
▁mumbl	-11.8127
Etern	-11.8129
▁arriv	-11.8133
Ewan	-11.8164
ervice	-11.8168
▁Ball	-11.8188
▁melodramatic	-11.8192
▁slipp	-11.8203
media	-11.8204
▁Friend	-11.8221
Lowe	-11.8245
freeze	-11.8277
liance	-11.8278
▁Sonn	-11.8313
▁fogg	-11.8325
mple	-11.8377
arious	-11.838
▁Trum	-11.8383
▁comfort	-11.8389
inner	-11.8404
▁Petr	-11.8408
▁Trip	-11.8413
▁realiz	-11.8457
uza	-11.8464
ledge	-11.8476
logs	-11.8502
▁sunk	-11.8523
▁Hug	-11.8523
▁$7	-11.8548
84	-11.8552
ripp	-11.8554
whiz	-11.8595
▁Romania	-11.8601
Luci	-11.8601
enetic	-11.866
▁explor	-11.8669
aggy	-11.8693
▁presum	-11.877
literal	-11.8824
▁fantastical	-11.8831
pressed	-11.8845
pole	-11.8853
vor	-11.8859
active	-11.8867
guil	-11.8867
astic	-11.8893
▁rescu	-11.8897
tres	-11.8922
▁unimpress	-11.8936
▁Fast	-11.8937
▁til	-11.8941
THEN	-11.8949
▁controll	-11.9038
▁brav	-11.9129
placement	-11.9137
SOME	-11.916
quarters	-11.9163
arrangement	-11.9174
oca	-11.9206
high	-11.9243
jun	-11.9251
▁enthusias	-11.9283
plicate	-11.9302
HAT	-11.9309
OH	-11.9334
prise	-11.9346
urious	-11.9351
Cheers	-11.9358
Lori	-11.941
▁requir	-11.9419
▁pump	-11.9446
Luc	-11.9561
▁concentrat	-11.9568
truck	-11.9571
▁recreat	-11.9593
EAN	-11.9631
▁scum	-11.9642
erald	-11.9678
deserving	-11.9713
axi	-11.9715
▁assign	-11.9729
▁LU	-11.9758
windle	-11.9766
▁Serv	-11.9767
▁untru	-11.9767
meaning	-11.9791
▁prim	-11.9805
nails	-11.9812
solved	-11.9837
▁Changi	-11.9858
▁Brother	-11.9866
▁survivor	-11.9873
cluded	-11.9878
▁introduc	-11.9881
▁Swa	-11.9924
▁500	-11.9929
nybody	-11.9938
▁entr	-11.9958
▁surviv	-11.9974
occup	-11.999
47	-12
▁decid	-12.0004
probably	-12.0016
Prom	-12.0035
ggers	-12.0036
latter	-12.0038
trus	-12.0053
▁sigh	-12.0077
numbing	-12.0084
satisfied	-12.0085
Terrible	-12.0085
▁compell	-12.0085
▁accord	-12.0085
Granted	-12.0085
worship	-12.0086
Battle	-12.0086
Family	-12.0086
Ghost	-12.0086
Jeff	-12.0086
Chuck	-12.0087
Lots	-12.0087
Something	-12.0087
Think	-12.0087
Plot	-12.0087
Camp	-12.0087
shirt	-12.0087
Laura	-12.0087
plant	-12.0087
dubbed	-12.0087
normal	-12.0087
comedic	-12.0088
social	-12.0088
freak	-12.0088
machine	-12.0088
Bruce	-12.0088
Dracula	-12.0088
mystery	-12.0088
nonsense	-12.0088
professional	-12.0088
Julia	-12.0088
bottom	-12.0088
Great	-12.0088
climax	-12.0088
Charles	-12.0088
surprise	-12.0088
Jim	-12.0089
modern	-12.0089
build	-12.0089
villain	-12.0089
murder	-12.0089
suspense	-12.0089
basically	-12.0089
igator	-12.0089
please	-12.0089
English	-12.0089
expect	-12.0089
DVD	-12.0089
Angel	-12.0089
dream	-12.0089
More	-12.0089
decent	-12.0089
shooting	-12.0089
Baby	-12.009
Everyone	-12.0091
candy	-12.0091
burn	-12.0091
passion	-12.0091
aware	-12.0092
jump	-12.0092
Paul	-12.0094
joke	-12.0094
forward	-12.0095
Lou	-12.0095
dark	-12.0096
Young	-12.0098
apart	-12.0098
New	-12.0099
▁accomplish	-12.0099
often	-12.01
▁Iraq	-12.0101
week	-12.0102
reality	-12.0103
Someone	-12.0103
based	-12.0104
USE	-12.0108
▁snip	-12.0108
sympath	-12.0109
lift	-12.0109
▁happi	-12.011
▁Further	-12.011
▁thorough	-12.0111
▁immediate	-12.0112
▁intend	-12.0113
▁eliminate	-12.0113
▁resolve	-12.0113
▁advertise	-12.0114
▁divorce	-12.0114
▁execute	-12.0115
▁muddle	-12.0116
Lance	-12.0116
flow	-12.0117
▁summari	-12.0122
▁Vinc	-12.0123
▁gee	-12.0123
▁portra	-12.0123
▁divers	-12.0124
▁compose	-12.0129
NNE	-12.0132
▁thru	-12.014
▁responsib	-12.0141
▁impossib	-12.0141
▁posse	-12.0141
▁Europe	-12.0142
▁electric	-12.0144
▁benef	-12.0144
▁pupp	-12.0144
▁Clee	-12.0145
▁excess	-12.0145
▁Secret	-12.0145
exican	-12.0145
elevision	-12.0145
▁document	-12.0145
▁empha	-12.0145
ictoria	-12.0145
rgant	-12.0145
emorable	-12.0145
▁install	-12.0145
▁Kurt	-12.0145
▁intellect	-12.0146
▁chuck	-12.0146
Screen	-12.0146
LUM	-12.0146
ashmi	-12.0146
Magnificent	-12.0146
aaaaa	-12.0146
▁interrogat	-12.0146
▁Nicola	-12.0146
▁WRIT	-12.0146
▁deteriorat	-12.0146
▁marginal	-12.0146
▁supplie	-12.0146
Ausentes	-12.0146
Bodrov	-12.0146
Caddyshack	-12.0146
Charmed	-12.0146
Enjoy	-12.0146
Florida	-12.0146
GAME	-12.0146
Genius	-12.0146
Impossible	-12.0146
POSSIBLE	-12.0146
Piranha	-12.0146
Predictable	-12.0146
Troilus	-12.0146
biologist	-12.0146
bject	-12.0146
burgh	-12.0146
consequent	-12.0146
emocracy	-12.0146
exaggeration	-12.0146
jumbo	-12.0146
lucination	-12.0146
mouthed	-12.0146
quisite	-12.0146
▁1974	-12.0146
▁1986	-12.0146
▁1988	-12.0146
▁Achilles	-12.0146
▁Amazon	-12.0146
▁Argentine	-12.0146
▁Aykroyd	-12.0146
▁BOMB	-12.0146
▁Belgian	-12.0146
▁Biehn	-12.0146
▁Brotherhood	-12.0146
▁Buchanan	-12.0146
▁CALIGUL	-12.0146
▁CARNOSAUR	-12.0146
▁Castle	-12.0146
▁Cinderella	-12.0146
▁Company	-12.0146
▁Covenant	-12.0146
▁Creepers	-12.0146
▁Crichton	-12.0146
▁Crisis	-12.0146
▁Cruelty	-12.0146
▁Cruise	-12.0146
▁Cruz	-12.0146
▁Demeter	-12.0146
▁Donlevy	-12.0146
▁Doohan	-12.0146
▁Dublin	-12.0146
▁Dunaway	-12.0146
▁Dvorak	-12.0146
▁Eduardo	-12.0146
▁Elliot	-12.0146
▁Entertainment	-12.0146
▁Escape	-12.0146
▁Estevez	-12.0146
▁Exodus	-12.0146
▁FILM	-12.0146
▁GRAFFITTI	-12.0146
▁GREAT	-12.0146
▁Gilbey	-12.0146
▁Giphart	-12.0146
▁Godzilla	-12.0146
▁Gorcey	-12.0146
▁Gossett	-12.0146
▁Guccione	-12.0146
▁Gypsy	-12.0146
▁Hardbodies	-12.0146
▁Herzog	-12.0146
▁Hundred	-12.0146
▁Keith	-12.0146
▁LILI	-12.0146
▁Lahti	-12.0146
▁Lampoon	-12.0146
▁Lombard	-12.0146
▁MARIANNE	-12.0146
▁MASSACRE	-12.0146
▁McDowell	-12.0146
▁McQueen	-12.0146
▁Messengers	-12.0146
▁Mountain	-12.0146
▁Mozart	-12.0146
▁Ogrodnik	-12.0146
▁Pacific	-12.0146
▁Pakistan	-12.0146
▁Pennsylvania	-12.0146
▁Phoenix	-12.0146
▁Problem	-12.0146
▁Psycho	-12.0146
▁Rejects	-12.0146
▁Revelation	-12.0146
▁Rhett	-12.0146
▁Ridiculous	-12.0146
▁Robocop	-12.0146
▁Rohmer	-12.0146
▁Rommel	-12.0146
▁Sinatra	-12.0146
▁Sixties	-12.0146
▁Snipes	-12.0146
▁Spelling	-12.0146
▁Spencer	-12.0146
▁Suddenly	-12.0146
▁Summer	-12.0146
▁TERRIBL	-12.0146
▁THREE	-12.0146
▁TIMES	-12.0146
▁Temujin	-12.0146
▁Thumb	-12.0146
▁UFO	-12.0146
▁WESTERN	-12.0146
▁WRONG	-12.0146
▁Wayans	-12.0146
▁Zucco	-12.0146
▁abilities	-12.0146
▁ammunition	-12.0146
▁amusement	-12.0146
▁architect	-12.0146
▁aristocrat	-12.0146
▁assistance	-12.0146
▁atrocity	-12.0146
▁audacious	-12.0146
▁babysitter	-12.0146
▁beggars	-12.0146
▁bewildered	-12.0146
▁bullshit	-12.0146
▁capacit	-12.0146
▁caution	-12.0146
▁celebrate	-12.0146
▁challenging	-12.0146
▁champion	-12.0146
▁chronological	-12.0146
▁clutch	-12.0146
▁conceivable	-12.0146
▁concrete	-12.0146
▁contempt	-12.0146
▁creepiness	-12.0146
▁daft	-12.0146
▁decapitate	-12.0146
▁decapitation	-12.0146
▁deplorable	-12.0146
▁despair	-12.0146
▁dimwit	-12.0146
▁dishonest	-12.0146
▁distribution	-12.0146
▁documentaries	-12.0146
▁emergency	-12.0146
▁empathize	-12.0146
▁equivalent	-12.0146
▁extravaganza	-12.0146
▁fascinate	-12.0146
▁fascination	-12.0146
▁flimsy	-12.0146
▁fundamental	-12.0146
▁graduate	-12.0146
▁graffit	-12.0146
▁haphazard	-12.0146
▁hilarity	-12.0146
▁homicide	-12.0146
▁horrified	-12.0146
▁housekeeper	-12.0146
▁hybrid	-12.0146
▁hypocri	-12.0146
▁impregnate	-12.0146
▁inaccuracy	-12.0146
▁inadvert	-12.0146
▁industrial	-12.0146
▁infantile	-12.0146
▁institution	-12.0146
▁integrity	-12.0146
▁jackass	-12.0146
▁laptop	-12.0146
▁lavish	-12.0146
▁lethargic	-12.0146
▁loathsome	-12.0146
▁lunatic	-12.0146
▁mannequin	-12.0146
▁masquerad	-12.0146
▁masturbat	-12.0146
▁mausoleum	-12.0146
▁monitor	-12.0146
▁murky	-12.0146
▁narrates	-12.0146
▁narrow	-12.0146
▁nervous	-12.0146
▁nutshell	-12.0146
▁obscurity	-12.0146
▁ominous	-12.0146
▁omitted	-12.0146
▁organisation	-12.0146
▁peasant	-12.0146
▁pedestrian	-12.0146
▁ponderous	-12.0146
▁preposterous	-12.0146
▁prolific	-12.0146
▁psychology	-12.0146
▁purport	-12.0146
▁rambling	-12.0146
▁refreshing	-12.0146
▁relevance	-12.0146
▁repulsive	-12.0146
▁resource	-12.0146
▁rhyme	-12.0146
▁sandwich	-12.0146
▁schedule	-12.0146
▁skateboard	-12.0146
▁sloppy	-12.0146
▁smarmy	-12.0146
▁squint	-12.0146
▁stooge	-12.0146
▁surpass	-12.0146
▁surrender	-12.0146
▁syphilis	-12.0146
▁temporarily	-12.0146
▁tentacle	-12.0146
▁tribulation	-12.0146
▁tyrant	-12.0146
▁unconsciousness	-12.0146
▁unintelligible	-12.0146
▁unleash	-12.0146
▁unsettling	-12.0146
▁virtue	-12.0146
Enterprise	-12.0146
assandra	-12.0146
massacre	-12.0146
spaghetti	-12.0146
zzz	-12.0146
▁(1941	-12.0146
▁1979	-12.0146
▁BOOM	-12.0146
▁Britney	-12.0146
▁CERN	-12.0146
▁CHAR	-12.0146
▁CLEAR	-12.0146
▁Caribe	-12.0146
▁Columbus	-12.0146
▁Francisco	-12.0146
▁Griswold	-12.0146
▁Hilary	-12.0146
▁Liberal	-12.0146
▁Nessie	-12.0146
▁POV	-12.0146
▁Rachel	-12.0146
▁Rodriguez	-12.0146
▁Voight	-12.0146
▁accompany	-12.0146
▁accuracy	-12.0146
▁adolescen	-12.0146
▁approv	-12.0146
▁bimbo	-12.0146
▁competitor	-12.0146
▁constructed	-12.0146
▁critter	-12.0146
▁eccentric	-12.0146
▁evacuate	-12.0146
▁fluid	-12.0146
▁henchmen	-12.0146
▁implants	-12.0146
▁insurance	-12.0146
▁oppressi	-12.0146
▁pagan	-12.0146
▁penalty	-12.0146
▁photocopy	-12.0146
▁poetry	-12.0146
▁preserve	-12.0146
▁radical	-12.0146
▁shovel	-12.0146
Prisoner	-12.0146
articulate	-12.0146
▁Additiona	-12.0146
▁Byrne	-12.0146
▁Camera	-12.0146
▁Claud	-12.0146
▁Commun	-12.0146
▁Cortese	-12.0146
▁Forlani	-12.0146
▁Hatfield	-12.0146
▁Louisiana	-12.0146
▁Notebook	-12.0146
▁Rourke	-12.0146
▁WOW	-12.0146
▁astounding	-12.0146
▁cigarettes	-12.0146
▁conceit	-12.0146
▁darling	-12.0146
▁envy	-12.0146
▁inadequate	-12.0146
▁leather	-12.0146
▁lumpy	-12.0146
▁millionaire	-12.0146
▁pattern	-12.0146
▁pioneer	-12.0146
▁polite	-12.0146
▁pulse	-12.0146
▁pupil	-12.0146
▁seductive	-12.0146
▁sleepwalk	-12.0146
▁synthesi	-12.0146
▁thumb	-12.0146
▁vixen	-12.0146
▁warfare	-12.0146
▁wreak	-12.0146
QUI	-12.0146
▁Nadia	-12.0146
▁SEX	-12.0146
▁Toulon	-12.0146
▁efficien	-12.0146
▁warehouse	-12.0146
▁whale	-12.0146
Frankenstein	-12.0146
galaxy	-12.0146
trepid	-12.0146
▁Aussie	-12.0146
▁Calvin	-12.0146
▁Monday	-12.0146
▁Quinn	-12.0146
▁dentures	-12.0146
▁implement	-12.0146
▁nuance	-12.0146
▁orchestra	-12.0146
▁raptors	-12.0146
▁refund	-12.0146
▁throne	-12.0146
90210	-12.0146
EEP	-12.0146
▁Walsh	-12.0146
▁boulders	-12.0146
▁bungling	-12.0146
▁cheque	-12.0146
▁replies	-12.0146
▁stabbed	-12.0146
▁wisdom	-12.0146
-80	-12.0146
▁Impact	-12.0146
▁session	-12.0146
▁weaknesses	-12.0146
VOI	-12.0146
Violence	-12.0146
coherence	-12.0146
▁Passion	-12.0146
▁Waye	-12.0146
▁captions	-12.0146
▁expand	-12.0146
▁expedit	-12.0146
▁kitsch	-12.0146
▁parrot	-12.0146
xaatre	-12.0146
▁Hauer	-12.0146
▁Hurst	-12.0146
▁Renee	-12.0146
▁deleted	-12.0146
▁justifiabl	-12.0146
▁motif	-12.0146
▁boast	-12.0146
▁flush	-12.0146
▁genital	-12.0146
▁midget	-12.0146
▁recur	-12.0146
▁Potter	-12.0146
▁appeti	-12.0146
▁Valentine	-12.0146
▁sincerity	-12.0146
▁Cross	-12.0146
▁Kashmir	-12.0146
▁SEE	-12.0146
▁Shepard	-12.0146
▁manhood	-12.0146
▁radar	-12.0146
▁unstable	-12.0146
▁whisper	-12.0146
▁Reiner	-12.0146
▁Tweed	-12.0146
▁expire	-12.0146
▁Katie	-12.0146
▁instructor	-12.0146
Ultimately	-12.0146
▁Besser	-12.0146
▁eleven	-12.0146
Follow	-12.0146
▁Hawaii	-12.0146
▁relieved	-12.0146
▁satiriz	-12.0146
HEAD	-12.0146
▁Painful	-12.0146
▁Vidal	-12.0146
▁EVERYTHING	-12.0146
▁Cash	-12.0146
▁applie	-12.0146
▁foremost	-12.0146
▁frightened	-12.0146
▁knee	-12.0146
▁Center	-12.0146
▁apologize	-12.0146
thodo	-12.0146
Compton	-12.0146
▁civilization	-12.0146
▁immor	-12.0146
▁Sense	-12.0146
▁newcomer	-12.0146
▁Point	-12.0146
NAKE	-12.0146
fluent	-12.0146
▁Xmas	-12.0147
arricade	-12.0147
▁cotton	-12.0147
▁blunt	-12.0147
▁Kingsley	-12.0147
▁Spark	-12.0147
▁theoretical	-12.0147
▁Therefore	-12.0147
▁bloodsuck	-12.0147
▁crucifixion	-12.0147
Savage	-12.0147
▁Smithee	-12.0147
▁glee	-12.0147
Francis	-12.0147
▁Shining	-12.0147
▁Ivory	-12.0147
▁gull	-12.0147
▁confine	-12.0147
▁prompt	-12.0147
▁Glass	-12.0147
▁advers	-12.0147
▁animators	-12.0147
▁catchphrase	-12.0147
▁entity	-12.0147
▁Division	-12.0147
▁amoral	-12.0147
▁Command	-12.0147
▁dismemberment	-12.0147
▁gear	-12.0147
▁southern	-12.0147
▁Commission	-12.0147
▁Fritz	-12.0147
▁Sica	-12.0147
▁dopey	-12.0147
▁slurs	-12.0147
▁Eastern	-12.0147
▁miniature	-12.0147
handedly	-12.0147
▁Tension	-12.0147
▁peons	-12.0147
▁savvy	-12.0147
▁scalp	-12.0147
▁steel	-12.0147
▁Luckily	-12.0147
▁rogue	-12.0147
▁gripping	-12.0147
holic	-12.0147
▁Midler	-12.0147
▁east	-12.0147
▁frost	-12.0147
▁slot	-12.0147
▁Eastwood	-12.0147
▁wolf	-12.0147
▁Airport	-12.0147
▁Dialogue	-12.0147
▁Samuel	-12.0147
▁1-3	-12.0147
▁bonus	-12.0147
Ordinar	-12.0147
▁Marcia	-12.0147
Oddly	-12.0147
▁Dickens	-12.0147
▁vacu	-12.0147
▁strain	-12.0147
▁amused	-12.0147
Files	-12.0147
▁lynch	-12.0147
Euro	-12.0147
▁0/10	-12.0147
▁arrow	-12.0147
▁Turkey	-12.0147
▁emphasize	-12.0147
▁android	-12.0147
▁rode	-12.0147
▁Stick	-12.0147
▁divine	-12.0148
eesh	-12.0148
▁Florence	-12.0148
▁Cliff	-12.0148
▁strung	-12.0148
▁unseen	-12.0148
▁Meyer	-12.0148
carriage	-12.0148
▁Secretary	-12.0148
▁collage	-12.0148
▁tourist	-12.0148
Daffy	-12.0148
▁tagline	-12.0148
▁Walke	-12.0148
▁Hamill	-12.0148
▁refine	-12.0148
▁composition	-12.0148
▁distortion	-12.0148
▁orient	-12.0148
▁electrician	-12.0148
▁Tower	-12.0148
▁revolutionary	-12.0148
▁sunset	-12.0148
▁Wonderful	-12.0148
▁Mask	-12.0148
▁proclaim	-12.0148
▁GOOD	-12.0148
▁Giov	-12.0148
▁admirably	-12.0148
▁banter	-12.0148
▁ethic	-12.0148
▁Stacy	-12.0148
ynth	-12.0148
▁Awards	-12.0148
▁YES	-12.0148
scope	-12.0148
▁assert	-12.0148
▁Bird	-12.0149
▁chess	-12.0149
▁gender	-12.0149
▁superhero	-12.0149
▁Piper	-12.0149
pocalypse	-12.0149
▁Arrow	-12.0149
▁ambition	-12.0149
▁Quickie	-12.0149
▁knight	-12.0149
saloon	-12.0149
▁Lifetime	-12.0149
▁glory	-12.0149
▁$8	-12.0149
▁exploration	-12.0149
▁misplace	-12.0149
▁sickened	-12.0149
▁distinction	-12.0149
▁deranged	-12.0149
▁salad	-12.0149
▁utilit	-12.0149
▁techno	-12.0149
▁$6	-12.0149
▁Morland	-12.0149
▁victoria	-12.0149
streak	-12.0149
▁2004	-12.0149
▁Fanny	-12.0149
▁mentor	-12.0149
▁perky	-12.015
unshine	-12.015
commun	-12.015
▁sugar	-12.015
▁Nelly	-12.015
▁Jordanian	-12.015
gnes	-12.015
hima	-12.015
▁intact	-12.015
▁detract	-12.015
▁handgun	-12.015
▁sentimentality	-12.015
▁Diaz	-12.015
▁Gallo	-12.015
▁cough	-12.015
▁ditch	-12.015
▁impart	-12.015
▁:-)	-12.015
▁Fairies	-12.015
▁Stella	-12.0151
▁parole	-12.0151
▁predictably	-12.0151
ensible	-12.0151
▁haircut	-12.0151
▁differentiate	-12.0151
▁extract	-12.0151
▁conform	-12.0151
▁Chop	-12.0151
▁Huntley	-12.0151
▁Heston	-12.0151
▁Spring	-12.0151
▁Melani	-12.0151
▁twitch	-12.0151
▁Quick	-12.0151
▁Stack	-12.0151
▁Wiley	-12.0152
▁chock	-12.0152
▁continuous	-12.0152
▁Martian	-12.0152
▁Youtube	-12.0152
▁Tough	-12.0152
futur	-12.0152
▁stunk	-12.0152
▁transformation	-12.0152
▁reptiles	-12.0152
▁bulk	-12.0153
astard	-12.0153
▁Haack	-12.0153
▁Funny	-12.0153
enchant	-12.0153
▁Perry	-12.0153
▁anticipation	-12.0153
▁Zeus	-12.0153
worn	-12.0153
▁sunny	-12.0153
▁comparable	-12.0153
▁Vienn	-12.0153
▁download	-12.0154
▁bloke	-12.0154
▁Rhon	-12.0154
▁Flat	-12.0154
▁Moreland	-12.0154
▁rebellio	-12.0154
▁Harley	-12.0154
▁improvement	-12.0154
▁Patty	-12.0154
▁Marco	-12.0154
▁cease	-12.0154
▁unfl	-12.0155
▁Torch	-12.0155
▁Lacy	-12.0155
▁Depp	-12.0155
▁crop	-12.0155
▁exposit	-12.0155
▁HAL	-12.0155
▁export	-12.0155
▁safety	-12.0155
'70	-12.0155
morous	-12.0155
lasher	-12.0155
▁roam	-12.0155
scrub	-12.0155
matically	-12.0155
▁Money	-12.0156
▁pursuit	-12.0156
▁rewritten	-12.0156
▁restroom	-12.0156
▁artwork	-12.0156
▁Jeanne	-12.0156
▁Dirt	-12.0157
▁Robinson	-12.0157
▁foist	-12.0157
▁Danson	-12.0157
▁Thus	-12.0157
▁Somehow	-12.0157
▁excel	-12.0158
▁highschool	-12.0158
▁Balk	-12.0158
▁Kress	-12.0158
▁Board	-12.0158
▁Hendr	-12.0158
▁Moreno	-12.0159
▁Nurs	-12.0159
mran	-12.0159
▁pink	-12.016
▁unclear	-12.016
▁exec	-12.016
herent	-12.016
▁coward	-12.0161
▁Serge	-12.0161
▁speechless	-12.0161
▁vary	-12.0162
▁beef	-12.0162
▁COP	-12.0162
▁cried	-12.0162
▁saddle	-12.0163
▁noticing	-12.0163
Valentin	-12.0164
▁Ohio	-12.0164
fusion	-12.0164
Casting	-12.0164
▁clock	-12.0164
▁300	-12.0165
▁fence	-12.0165
▁fright	-12.0166
▁protection	-12.0166
▁Hmm	-12.0167
▁Shir	-12.0167
▁claw	-12.0168
▁composer	-12.0168
▁Reno	-12.0168
▁duh	-12.0168
hief	-12.0169
warf	-12.0169
▁abduction	-12.0169
▁Domin	-12.017
▁lash	-12.017
▁Huh	-12.0171
▁limo	-12.0172
Ugly	-12.0173
▁discerni	-12.0173
▁eeri	-12.0176
▁endorse	-12.0176
▁Keene	-12.0176
▁yo	-12.0179
▁Hack	-12.018
▁disclos	-12.0182
eez	-12.0183
Caba	-12.0191
▁undef	-12.0196
gnor	-12.0198
▁agreement	-12.0199
conventional	-12.0209
esert	-12.021
▁dishe	-12.0211
▁Supp	-12.0212
▁cite	-12.0212
▁ghoul	-12.0215
bike	-12.0217
▁Horri	-12.0225
istrict	-12.0235
ecently	-12.0235
▁leak	-12.0245
▁Floo	-12.0253
▁snipp	-12.0257
TIC	-12.026
Loose	-12.0261
▁peaceful	-12.0262
▁dodg	-12.0265
▁Maxim	-12.027
inding	-12.0291
▁Lucian	-12.0292
▁capabilit	-12.0299
▁Milk	-12.0302
▁greas	-12.031
ATED	-12.032
▁elde	-12.0328
uthenticity	-12.0335
Shutter	-12.0355
▁scatter	-12.0411
▁wipe	-12.0413
1931	-12.0441
NOW	-12.0449
▁code	-12.0449
▁degenerate	-12.0452
Alright	-12.0465
▁Jad	-12.0467
presidential	-12.0473
▁Erik	-12.0495
▁remov	-12.0511
Indian	-12.0557
▁cab	-12.0585
2002	-12.0607
▁supervis	-12.0636
paced	-12.0638
Tiny	-12.0639
▁hypnoti	-12.0641
gious	-12.066
▁clash	-12.0696
▁audi	-12.0747
▁juic	-12.0747
igger	-12.0761
lbert	-12.0764
Alexand	-12.0935
▁Medi	-12.0972
Mika	-12.1
Carmen	-12.1002
Parent	-12.1092
▁glu	-12.1124
hanging	-12.1135
▁plumb	-12.122
▁Kari	-12.1238
▁digg	-12.1252
▁brut	-12.1255
slav	-12.1291
sancti	-12.1323
artistry	-12.1431
ggy	-12.1443
born	-12.1468
▁turb	-12.147
2000)	-12.148
ooja	-12.1488
elevator	-12.1541
OOD	-12.1678
▁Combin	-12.1683
▁racis	-12.1702
ODO	-12.1705
fair	-12.1756
▁Abi	-12.1817
given	-12.1855
[	-12.1904
apolog	-12.196
evertheless	-12.2083
Carly	-12.217
▁Lak	-12.234
▁reci	-12.2531
NES	-12.2582
UNG	-12.2704
▁prais	-12.2735
vision	-12.2776
LIN	-12.2821
Tim	-12.283
nnell	-12.286
boiler	-12.2867
▁rou	-12.2868
dudes	-12.2882
Frankly	-12.3046
ounty	-12.3108
▁tast	-12.3109
uzzy	-12.3155
intentionally	-12.3263
▁sadde	-12.3274
rainy	-12.3276
▁pacif	-12.3276
dvice	-12.3278
▁resembl	-12.3291
appropriate	-12.3311
ficient	-12.3312
▁trib	-12.3361
▁homo	-12.3374
eaky	-12.3386
▁choos	-12.3392
▁imitat	-12.3394
worth	-12.3399
=	-12.3411
related	-12.3416
EVER	-12.3418
phrase	-12.3418
Hollow	-12.3418
dropping	-12.3418
present	-12.3419
Alice	-12.3419
specific	-12.3419
Austin	-12.3419
Franco	-12.3419
Remember	-12.3419
Club	-12.3419
Road	-12.3419
Code	-12.3419
spoiler	-12.3419
scarecrow	-12.3419
Nazi	-12.342
split	-12.342
Sometimes	-12.342
Death	-12.342
Wait	-12.342
Super	-12.342
Almost	-12.342
Ocean	-12.342
patient	-12.342
laughter	-12.342
Strange	-12.342
Denn	-12.342
wannabe	-12.342
Lloyd	-12.342
exploitation	-12.342
Henry	-12.3421
Story	-12.3421
Three	-12.3421
asochist	-12.3421
Again	-12.3421
intellectual	-12.3421
spoke	-12.3421
Karen	-12.3421
Actually	-12.3421
Halloween	-12.3421
genius	-12.3421
Charlie	-12.3421
design	-12.3422
length	-12.3422
Because	-12.3422
Bob	-12.3422
Disney	-12.3422
street	-12.3422
fantasy	-12.3422
frame	-12.3422
pretentious	-12.3422
masterpiece	-12.3422
believe	-12.3422
hilarious	-12.3422
perfect	-12.3422
Ryan	-12.3422
invent	-12.3422
husband	-12.3422
Italian	-12.3422
screenwriter	-12.3422
picture	-12.3422
female	-12.3422
direction	-12.3422
quality	-12.3423
writing	-12.3423
women	-12.3423
daughter	-12.3423
release	-12.3423
stupid	-12.3423
third	-12.3423
support	-12.3423
Larry	-12.3423
blood	-12.3423
woman	-12.3423
music	-12.3423
first	-12.3423
better	-12.3423
felt	-12.3424
safe	-12.3425
three	-12.3425
▁animat	-12.343
▁arrest	-12.3433
Christin	-12.3434
crappy	-12.3435
bomb	-12.3438
Twi	-12.3438
▁distinct	-12.3439
eautiful	-12.3439
template	-12.344
flicted	-12.3443
brush	-12.3444
▁essential	-12.3445
▁applau	-12.3447
variabl	-12.3448
Possibl	-12.3455
▁possibilit	-12.3461
▁Korea	-12.3464
▁Foreign	-12.3465
▁lacklust	-12.3466
▁nostalgi	-12.3466
sacrific	-12.3467
▁cohesi	-12.3467
▁anticipat	-12.347
sibly	-12.3471
▁thematic	-12.3472
▁nausea	-12.3474
deemed	-12.3476
semblance	-12.3476
UCK	-12.3476
▁avail	-12.3477
rivate	-12.3478
▁expens	-12.3478
▁convers	-12.3478
▁DID	-12.3478
scribe	-12.3478
upposedly	-12.3478
ategory	-12.3478
efense	-12.3478
ocumentary	-12.3478
▁detect	-12.3478
pisode	-12.3478
xtreme	-12.3478
▁Advent	-12.3479
ketch	-12.3479
elicit	-12.3479
▁sensation	-12.3479
▁(196	-12.3479
OOOOO	-12.3479
hahaha	-12.3479
ordinar	-12.3479
▁UNDER	-12.3479
minators	-12.348
surveillance	-12.348
▁Cleaner	-12.348
▁accelerat	-12.348
▁conservat	-12.348
▁engender	-12.348
▁perennially	-12.348
▁telegraph	-12.348
Animator	-12.348
Bizarre	-12.348
Camille	-12.348
Coronado	-12.348
Critters	-12.348
Elephant	-12.348
Emraan	-12.348
Flashback	-12.348
Governor	-12.348
Gyllenhaal	-12.348
Hatchet	-12.348
Hostel	-12.348
Joaqui	-12.348
Koyaanisq	-12.348
Kristofferson	-12.348
Occasionally	-12.348
Perfect	-12.348
Platoon	-12.348
Traffic	-12.348
Unspeak	-12.348
activist	-12.348
biographies	-12.348
climatic	-12.348
confidence	-12.348
ertificate	-12.348
flamethrower	-12.348
imultaneously	-12.348
malgam	-12.348
ological	-12.348
ophile	-12.348
repugnant	-12.348
reservation	-12.348
ristocracy	-12.348
▁/>2/5	-12.348
▁24/7	-12.348
▁7/11	-12.348
▁ALERT	-12.348
▁AROUND	-12.348
▁AWFUL	-12.348
▁August	-12.348
▁Aurora	-12.348
▁Auteuil	-12.348
▁Bachchan	-12.348
▁Balderson	-12.348
▁Bucharest	-12.348
▁Ceremony	-12.348
▁Chaplin	-12.348
▁Collection	-12.348
▁Convention	-12.348
▁Criminal	-12.348
▁Deneuve	-12.348
▁Development	-12.348
▁Duncan	-12.348
▁EARTH	-12.348
▁Eckhart	-12.348
▁Edinburgh	-12.348
▁Entertainer	-12.348
▁Examiner	-12.348
▁Examples	-12.348
▁Excellen	-12.348
▁FRONT	-12.348
▁FUNNY	-12.348
▁Flavia	-12.348
▁GEEK	-12.348
▁GREEN	-12.348
▁Gedran	-12.348
▁Geek	-12.348
▁Gittai	-12.348
▁Goldthwait	-12.348
▁Grenier	-12.348
▁HORRIBLE	-12.348
▁Haiduk	-12.348
▁Hasselhof	-12.348
▁Hopkins	-12.348
▁Isabella	-12.348
▁Islamic	-12.348
▁January	-12.348
▁KIND	-12.348
▁Kalidor	-12.348
▁Kansas	-12.348
▁Karpathy	-12.348
▁Katrina	-12.348
▁Kinski	-12.348
▁LAME	-12.348
▁Macbeth	-12.348
▁Magdalene	-12.348
▁Malkovich	-12.348
▁McGinley	-12.348
▁McMurt	-12.348
▁Melbourne	-12.348
▁Muslim	-12.348
▁Mwanza	-12.348
▁Naqoyqatsi	-12.348
▁Nebraska	-12.348
▁Nielsen	-12.348
▁OVER	-12.348
▁PARTY	-12.348
▁Patriot	-12.348
▁Peace	-12.348
▁Potemkin	-12.348
▁Predictably	-12.348
▁Producer	-12.348
▁Production	-12.348
▁Project	-12.348
▁RINGU	-12.348
▁ROCK	-12.348
▁Railsback	-12.348
▁Rapaport	-12.348
▁Rothbart	-12.348
▁Ryoko	-12.348
▁SCRAM	-12.348
▁SCREEN	-12.348
▁SEANCE	-12.348
▁SOLDIERS	-12.348
▁Sabbath	-12.348
▁Sarandon	-12.348
▁Schenke	-12.348
▁Schijf	-12.348
▁Scrimm	-12.348
▁Seattle	-12.348
▁Senator	-12.348
▁Seymour	-12.348
▁Slugs	-12.348
▁THINK	-12.348
▁Thersites	-12.348
▁Thurman	-12.348
▁Tibbs	-12.348
▁Translation	-12.348
▁Vancouver	-12.348
▁Venezuela	-12.348
▁Waltz	-12.348
▁XXX	-12.348
▁ZOMBIE	-12.348
▁[1946]	-12.348
▁acquaintances	-12.348
▁activity	-12.348
▁aficionado	-12.348
▁alphabet	-12.348
▁amputation	-12.348
▁appalled	-12.348
▁apprais	-12.348
▁aspirations	-12.348
▁attorney	-12.348
▁brothel	-12.348
▁calibre	-12.348
▁captioning	-12.348
▁categories	-12.348
▁cemetery	-12.348
▁chaotic	-12.348
▁chauvinist	-12.348
▁clunker	-12.348
▁cocaine	-12.348
▁cockroach	-12.348
▁complement	-12.348
▁condescending	-12.348
▁congratulat	-12.348
▁connoisseur	-12.348
▁constipat	-12.348
▁continent	-12.348
▁corporation	-12.348
▁creepier	-12.348
▁critique	-12.348
▁cryogenics	-12.348
▁culprit	-12.348
▁cynicism	-12.348
▁delinquents	-12.348
▁delusional	-12.348
▁demographic	-12.348
▁denominator	-12.348
▁denouement	-12.348
▁deprav	-12.348
▁diabolical	-12.348
▁diamond	-12.348
▁dilemma	-12.348
▁disciple	-12.348
▁discrimination	-12.348
▁dispatch	-12.348
▁dispens	-12.348
▁dizzy	-12.348
▁domestic	-12.348
▁dungeon	-12.348
▁emperor	-12.348
▁enforcement	-12.348
▁epidemic	-12.348
▁epitom	-12.348
▁expelled	-12.348
▁exploding	-12.348
▁fabric	-12.348
▁fantasies	-12.348
▁fugitive	-12.348
▁furniture	-12.348
▁gambling	-12.348
▁gesture	-12.348
▁grenade	-12.348
▁guru	-12.348
▁harbor	-12.348
▁heartstrings	-12.348
▁helmet	-12.348
▁homesteaders	-12.348
▁hunchback	-12.348
▁hurricane	-12.348
▁indifference	-12.348
▁infomercial	-12.348
▁infuriat	-12.348
▁ingenious	-12.348
▁innuendo	-12.348
▁insecure	-12.348
▁insufferable	-12.348
▁intercourse	-12.348
▁intrude	-12.348
▁irresponsible	-12.348
▁irritation	-12.348
▁jewish	-12.348
▁landlord	-12.348
▁luggage	-12.348
▁machismo	-12.348
▁manipulative	-12.348
▁masculinity	-12.348
▁maximum	-12.348
▁melancholy	-12.348
▁mercenary	-12.348
▁metaphor	-12.348
▁mimic	-12.348
▁mockumentary	-12.348
▁moustache	-12.348
▁multitude	-12.348
▁nauseum	-12.348
▁nephew	-12.348
▁occurrence	-12.348
▁octopus	-12.348
▁oxygen	-12.348
▁paragraph	-12.348
▁piranha	-12.348
▁platinum	-12.348
▁policy	-12.348
▁precaution	-12.348
▁prosecut	-12.348
▁prosthetics	-12.348
▁provoke	-12.348
▁publishe	-12.348
▁pudding	-12.348
▁puerile	-12.348
▁rearranged	-12.348
▁rehabilitated	-12.348
▁relevant	-12.348
▁reluctant	-12.348
▁rendition	-12.348
▁retelling	-12.348
▁revisionist	-12.348
▁rhythm	-12.348
▁sabotage	-12.348
▁satirical	-12.348
▁satisfaction	-12.348
▁sausage	-12.348
▁scantily	-12.348
▁sculpture	-12.348
▁sensibilit	-12.348
▁shriek	-12.348
▁shuffling	-12.348
▁silhouette	-12.348
▁silicon	-12.348
▁silliness	-12.348
▁soooooo	-12.348
▁spectacle	-12.348
▁spectator	-12.348
▁speleologist	-12.348
▁statuette	-12.348
▁suffice	-12.348
▁sweetheart	-12.348
▁syndicate	-12.348
▁synonymous	-12.348
▁technician	-12.348
▁telekinetic	-12.348
▁throttle	-12.348
▁trappings	-12.348
▁trollop	-12.348
▁udders	-12.348
▁uncontrollabl	-12.348
▁underestimate	-12.348
▁underpopulated	-12.348
▁understatement	-12.348
▁uneasy	-12.348
▁unexciting	-12.348
▁unlucky	-12.348
▁unravel	-12.348
▁verdict	-12.348
▁volunteer	-12.348
▁voodoo	-12.348
▁vulnerab	-12.348
▁watermelon	-12.348
▁yield	-12.348
Written	-12.348
alestinian	-12.348
mitigat	-12.348
▁(2004)	-12.348
▁Addison	-12.348
▁Archive	-12.348
▁Avenger	-12.348
▁Beethoven	-12.348
▁Buscemi	-12.348
▁COOL	-12.348
▁Coscarelli	-12.348
▁Darnell	-12.348
▁Dennehy	-12.348
▁Disappear	-12.348
▁ESPN	-12.348
▁Eleniak	-12.348
▁Fingerling	-12.348
▁Fragata	-12.348
▁Grisham	-12.348
▁Jaclyn	-12.348
▁Leconte	-12.348
▁Lithgow	-12.348
▁Lugosi	-12.348
▁Mockingbird	-12.348
▁Polanski	-12.348
▁Quo	-12.348
▁Salmon	-12.348
▁Scamp	-12.348
▁Singapore	-12.348
▁Verghese	-12.348
▁Yankee	-12.348
▁advisor	-12.348
▁ancestor	-12.348
▁calculations	-12.348
▁catastroph	-12.348
▁chocolate	-12.348
▁cocktail	-12.348
▁collaborati	-12.348
▁conspirator	-12.348
▁disrespect	-12.348
▁embark	-12.348
▁embryo	-12.348
▁expend	-12.348
▁flourish	-12.348
▁gadget	-12.348
▁hodge	-12.348
▁incomparabl	-12.348
▁intricate	-12.348
▁juggl	-12.348
▁jumble	-12.348
▁primitive	-12.348
▁puzzling	-12.348
▁salvage	-12.348
▁senior	-12.348
▁sensual	-12.348
▁speculati	-12.348
▁spontaneous	-12.348
▁undergarment	-12.348
ABLE	-12.348
mplications	-12.348
tabloid	-12.348
▁'80	-12.348
▁1983	-12.348
▁ACTUAL	-12.348
▁Assante	-12.348
▁Bloodstone	-12.348
▁Craven	-12.348
▁DARK	-12.348
▁Giallo	-12.348
▁Greengrass	-12.348
▁Letterman	-12.348
▁Lolita	-12.348
▁McGuff	-12.348
▁Miyazaki	-12.348
▁Morocc	-12.348
▁Reagan	-12.348
▁Sykes	-12.348
▁Teenage	-12.348
▁Temple	-12.348
▁Tokyo	-12.348
▁Verhoeven	-12.348
▁WANT	-12.348
▁Wharton	-12.348
▁ambitious	-12.348
▁bloodletting	-12.348
▁brainwash	-12.348
▁circula	-12.348
▁dazzl	-12.348
▁dignity	-12.348
▁dildo	-12.348
▁dreari	-12.348
▁extraneous	-12.348
▁eyebrows	-12.348
▁hesitation	-12.348
▁hulking	-12.348
▁impaired	-12.348
▁insects	-12.348
▁intermittent	-12.348
▁laboured	-12.348
▁mortified	-12.348
▁peppy	-12.348
▁platitud	-12.348
▁redempti	-12.348
▁savior	-12.348
▁scissors	-12.348
▁slayer	-12.348
▁testament	-12.348
▁videotape	-12.348
***************	-12.348
Folk	-12.348
▁BAND	-12.348
▁Cheadle	-12.348
▁Daughter	-12.348
▁Kronk	-12.348
▁McGow	-12.348
▁Truth	-12.348
▁cronies	-12.348
▁crooked	-12.348
▁indecipherable	-12.348
▁justification	-12.348
▁mastermind	-12.348
▁prolonged	-12.348
▁puking	-12.348
▁squeal	-12.348
▁sweeping	-12.348
▁vapid	-12.348
▁violin	-12.348
Chapelle	-12.348
Miracle	-12.348
mercifully	-12.348
podge	-12.348
tournament	-12.348
▁(1996)	-12.348
▁Amazing	-12.348
▁Bovon	-12.348
▁Brief	-12.348
▁Brigg	-12.348
▁Credit	-12.348
▁Dustin	-12.348
▁Harbor	-12.348
▁Hitler	-12.348
▁PPV	-12.348
▁Raido	-12.348
▁SAND	-12.348
▁Sheldon	-12.348
▁Trivett	-12.348
▁candidate	-12.348
▁cretin	-12.348
▁glutton	-12.348
▁phant	-12.348
▁prud	-12.348
▁rehash	-12.348
▁sparse	-12.348
▁williams	-12.348
meister	-12.348
oblivio	-12.348
onymous	-12.348
▁Blake	-12.348
▁CEO	-12.348
▁Cooper	-12.348
▁TMN	-12.348
▁overwrought	-12.348
▁phase	-12.348
▁titillati	-12.348
▁uninvolving	-12.348
▁#2	-12.348
▁Cohen	-12.348
▁Collins	-12.348
▁carnage	-12.348
▁patrons	-12.348
▁vault	-12.348
Moscow	-12.348
PLANE	-12.348
▁Bruck	-12.348
▁applica	-12.348
▁dictat	-12.348
Isaac	-12.348
RAIN	-12.348
mischief	-12.348
▁Claus	-12.348
▁Orange	-12.348
▁Westwing	-12.348
▁balloon	-12.348
▁conceal	-12.348
▁snowballs	-12.348
▁Gator	-12.348
▁Warrior	-12.348
▁Xena	-12.348
▁diaper	-12.348
▁integrate	-12.348
▁swordsmen	-12.348
▁thrive	-12.348
Eastenders	-12.348
Harvard	-12.348
OCA	-12.348
▁Clara	-12.348
▁MAG	-12.348
▁cheesi	-12.348
▁knit	-12.348
▁manifest	-12.348
▁stagger	-12.348
▁tedium	-12.348
▁Elwes	-12.348
▁LDS	-12.348
▁LSD	-12.348
▁MAY	-12.348
▁costuming	-12.348
▁gamble	-12.348
▁hobo	-12.348
▁ravag	-12.348
bearded	-12.348
▁Heaven	-12.348
▁Steele	-12.348
▁Tube	-12.348
▁burden	-12.348
▁dismay	-12.348
▁gaudy	-12.348
▁omni	-12.348
▁dysfunction	-12.348
▁untouch	-12.348
▁Motors	-12.348
▁commend	-12.348
Mille	-12.348
▁Secor	-12.348
▁Suz	-12.348
▁spear	-12.348
palabra	-12.348
▁Andersson	-12.348
▁Haim	-12.348
▁Surprisingly	-12.348
▁homeschooler	-12.348
ophie	-12.348
▁Alexander	-12.348
▁Dunn	-12.348
▁Holmes	-12.348
▁collapse	-12.348
leeze	-12.348
▁barrel	-12.348
▁submit	-12.348
▁bleeding	-12.348
▁detour	-12.348
▁(1966)	-12.348
▁Malone	-12.348
▁riff	-12.348
▁worm	-12.348
▁Mendes	-12.348
▁mannerisms	-12.348
▁occupy	-12.348
-15	-12.348
ELO	-12.348
▁Bucky	-12.348
▁Genesis	-12.348
▁Mediterr	-12.348
▁academ	-12.348
▁electronic	-12.348
▁motto	-12.348
▁inundat	-12.348
▁abroad	-12.348
▁iota	-12.348
▁reenactments	-12.348
▁Ebert	-12.348
▁heiress	-12.348
Clockwork	-12.348
▁MIN	-12.348
▁isolated	-12.348
▁transpir	-12.348
hwaa	-12.348
crucifix	-12.348
▁transplant	-12.348
▁injure	-12.348
boggl	-12.348
▁Rosali	-12.348
▁spelt	-12.348
▁Grudge	-12.348
▁Doyle	-12.348
▁organization	-12.348
▁politicians	-12.348
▁protest	-12.348
▁bleak	-12.348
▁Rubinstein	-12.348
▁acquit	-12.348
▁wrongdoer	-12.348
▁rustle	-12.348
▁carpet	-12.348
enburg	-12.348
▁Pettet	-12.348
▁Rhys	-12.348
▁sperm	-12.348
▁swordsman	-12.348
▁Jared	-12.348
▁(1962)	-12.348
▁Gilbert	-12.348
▁resident	-12.348
▁tiring	-12.348
▁Gibb	-12.348
aboutit	-12.348
▁derive	-12.348
▁Merri	-12.348
▁Reese	-12.348
▁baggage	-12.348
extraterrestrial	-12.348
▁pissing	-12.348
▁Wilki	-12.348
▁jocks	-12.348
mongering	-12.348
▁instruction	-12.348
▁spree	-12.348
▁slander	-12.348
▁skirt	-12.348
petition	-12.348
runken	-12.348
▁Drugs	-12.348
▁McKe	-12.348
▁commission	-12.348
HAI	-12.348
▁therapist	-12.348
▁Early	-12.348
▁Haines	-12.348
▁aloof	-12.348
▁Olivetti	-12.348
▁auction	-12.348
▁division	-12.348
▁Abel	-12.348
hounds	-12.348
▁Montana	-12.348
▁Spot	-12.348
▁cattle	-12.348
ssimo	-12.348
▁Smart	-12.348
furnish	-12.348
▁CIT	-12.348
Nightbreed	-12.348
▁closure	-12.348
Peppard	-12.348
▁tomorrow	-12.348
▁secular	-12.348
▁underused	-12.348
Message	-12.348
▁treach	-12.348
Sixth	-12.3481
▁textbook	-12.3481
▁gruel	-12.3481
▁radiat	-12.3481
▁bandits	-12.3481
▁Sheesh	-12.3481
▁1977	-12.3481
▁Seuss	-12.3481
▁meager	-12.3481
▁Trumbo	-12.3481
▁Chopper	-12.3481
atador	-12.3481
AID	-12.3481
▁Gimmi	-12.3481
▁ilk	-12.3481
▁reused	-12.3481
▁cutouts	-12.3481
audevill	-12.3481
▁enigma	-12.3481
▁Future	-12.3481
▁laborious	-12.3481
▁resonate	-12.3481
▁vines	-12.3481
▁splendo	-12.3481
▁hetero	-12.3481
orsaken	-12.3481
▁Wilb	-12.3481
▁germ	-12.3481
▁trunk	-12.3481
▁Hagg	-12.3481
1/5	-12.3481
▁feroci	-12.3481
▁unsuspe	-12.3481
▁Holden	-12.3482
▁debt	-12.3482
▁definat	-12.3482
SSI	-12.3482
▁stride	-12.3482
Useless	-12.3482
Knock	-12.3482
▁alleged	-12.3482
▁Thirt	-12.3482
▁Clair	-12.3482
▁Forbes	-12.3482
umental	-12.3482
▁Swing	-12.3482
▁fiddl	-12.3482
▁incline	-12.3482
▁Sucks	-12.3482
▁violat	-12.3482
▁Pegg	-12.3482
▁Hubb	-12.3482
Clonus	-12.3482
▁retro	-12.3482
▁1,000	-12.3482
pods	-12.3482
▁abyss	-12.3483
▁Theatre	-12.3483
▁mags	-12.3483
▁Iowa	-12.3483
▁cremat	-12.3483
▁stray	-12.3483
rpent	-12.3483
▁fancie	-12.3484
▁fertil	-12.3484
Writing	-12.3485
hapless	-12.3485
▁HAVE	-12.3485
cchio	-12.3486
regain	-12.3486
▁interfere	-12.3486
POS	-12.3486
elope	-12.3487
ontrast	-12.3488
burger	-12.3488
pologise	-12.3489
▁electi	-12.3489
arathon	-12.3489
▁Horn	-12.3489
Visual	-12.3491
ornado	-12.3492
mbass	-12.3494
▁FLO	-12.3494
▁daze	-12.3496
imdb	-12.3497
▁antholog	-12.3497
▁undermine	-12.3498
▁Smok	-12.3501
▁Abhi	-12.3502
flex	-12.3503
indulgence	-12.3508
▁\'80	-12.3512
INN	-12.3518
▁Litera	-12.3519
remors	-12.3519
▁Clare	-12.352
artoon	-12.352
▁soci	-12.3521
▁pilla	-12.3521
▁Angl	-12.3523
demand	-12.3523
▁Bike	-12.3524
Previous	-12.3524
▁bodi	-12.353
▁LIV	-12.3531
▁Henri	-12.3532
ertaining	-12.3532
budged	-12.3533
LOAD	-12.3538
▁masochis	-12.3539
scrape	-12.3549
Curly	-12.3551
▁grizzl	-12.3552
▁Pierr	-12.3557
▁constr	-12.3562
▁merc	-12.3569
Cult	-12.3572
esthetically	-12.3582
▁reptil	-12.3605
▁colla	-12.3622
▁dramatiz	-12.3626
organized	-12.3636
▁Brav	-12.364
▁contemplat	-12.367
cloak	-12.368
READ	-12.3691
ccupation	-12.3701
ighlander	-12.3714
1956	-12.3737
▁heartbreak	-12.3833
Type	-12.3875
Miner	-12.3891
▁BRI	-12.3899
monious	-12.3914
Capri	-12.392
civilis	-12.3931
equate	-12.4011
Roller	-12.4036
GIRLS	-12.4055
nudi	-12.4076
polish	-12.4115
LAND	-12.4123
ncredible	-12.4131
uccessfully	-12.417
believers	-12.4199
Romance	-12.4262
actica	-12.4296
▁Geral	-12.4309
Brien	-12.4358
arcel	-12.4474
glance	-12.4484
Unlik	-12.4557
nished	-12.4765
blog	-12.4783
rticle	-12.4864
protective	-12.4965
dependent	-12.4994
1970	-12.505
ISN	-12.521
partment	-12.5235
▁submissi	-12.5251
impressive	-12.5381
nsistent	-12.5448
spirited	-12.5536
▁remarkabl	-12.5563
discovered	-12.5611
Trav	-12.5648
▁privilege	-12.5649
Exit	-12.605
Twiste	-12.6055
▁separat	-12.6134
▁Minn	-12.6202
strange	-12.6365
▁smuggl	-12.6419
Counter	-12.6557
▁reenact	-12.6582
graphic	-12.6616
▁substitut	-12.6787
gator	-12.6827
Characters	-12.6893
Friends	-12.697
waves	-12.707
Scenes	-12.7073
▁participa	-12.7155
successful	-12.7302
discovery	-12.7397
▁hypno	-12.7437
uniforms	-12.7465
Witcher	-12.7536
▁GIRL	-12.7605
1998	-12.7748
▁advocat	-12.7844
dissolve	-12.8018
▁Stooge	-12.8208
ncient	-12.8272
fraid	-12.8277
ttempt	-12.828
▁univers	-12.8302
▁indulg	-12.8309
GHT	-12.8347
▁perpetua	-12.8358
rizzly	-12.8362
▁disturb	-12.8374
▁experienc	-12.8374
▁bubbl	-12.8385
investigati	-12.8388
▁qui	-12.8392
shadow	-12.8407
